{
  "version": "1.0",
  "truncation": null,
  "padding": null,
  "added_tokens": [
    {
      "id": 0,
      "content": "<s>",
      "single_word": false,
      "lstrip": false,
      "rstrip": false,
      "normalized": false,
      "special": true
    },
    {
      "id": 1,
      "content": "<pad>",
      "single_word": false,
      "lstrip": false,
      "rstrip": false,
      "normalized": false,
      "special": true
    },
    {
      "id": 2,
      "content": "</s>",
      "single_word": false,
      "lstrip": false,
      "rstrip": false,
      "normalized": false,
      "special": true
    },
    {
      "id": 3,
      "content": "<unk>",
      "single_word": false,
      "lstrip": false,
      "rstrip": false,
      "normalized": false,
      "special": true
    }
  ],
  "normalizer": null,
  "pre_tokenizer": {
    "type": "ByteLevel",
    "add_prefix_space": false,
    "trim_offsets": true,
    "use_regex": true
  },
  "post_processor": null,
  "decoder": {
    "type": "ByteLevel",
    "add_prefix_space": true,
    "trim_offsets": true,
    "use_regex": true
  },
  "model": {
    "type": "BPE",
    "dropout": null,
    "unk_token": "<unk>",
    "continuing_subword_prefix": null,
    "end_of_word_suffix": null,
    "fuse_unk": false,
    "byte_fallback": false,
    "ignore_merges": false,
    "vocab": {
      "<s>": 0,
      "<pad>": 1,
      "</s>": 2,
      "<unk>": 3,
      "!": 4,
      "$": 5,
      "&": 6,
      "(": 7,
      ")": 8,
      "*": 9,
      ",": 10,
      "-": 11,
      ".": 12,
      "0": 13,
      "1": 14,
      "2": 15,
      "3": 16,
      "4": 17,
      "5": 18,
      "6": 19,
      "7": 20,
      "8": 21,
      "9": 22,
      ":": 23,
      ";": 24,
      "?": 25,
      "A": 26,
      "B": 27,
      "C": 28,
      "D": 29,
      "E": 30,
      "F": 31,
      "G": 32,
      "H": 33,
      "I": 34,
      "J": 35,
      "K": 36,
      "L": 37,
      "M": 38,
      "N": 39,
      "O": 40,
      "P": 41,
      "Q": 42,
      "R": 43,
      "S": 44,
      "T": 45,
      "U": 46,
      "V": 47,
      "W": 48,
      "X": 49,
      "Y": 50,
      "Z": 51,
      "[": 52,
      "]": 53,
      "a": 54,
      "b": 55,
      "c": 56,
      "d": 57,
      "e": 58,
      "f": 59,
      "g": 60,
      "h": 61,
      "i": 62,
      "j": 63,
      "k": 64,
      "l": 65,
      "m": 66,
      "n": 67,
      "o": 68,
      "p": 69,
      "q": 70,
      "r": 71,
      "s": 72,
      "t": 73,
      "u": 74,
      "v": 75,
      "w": 76,
      "x": 77,
      "y": 78,
      "z": 79,
      "¢": 80,
      "£": 81,
      "¦": 82,
      "¨": 83,
      "©": 84,
      "°": 85,
      "·": 86,
      "¿": 87,
      "Â": 88,
      "Ã": 89,
      "Å": 90,
      "Î": 91,
      "Ï": 92,
      "×": 93,
      "â": 94,
      "ĉ": 95,
      "Ċ": 96,
      "č": 97,
      "Ġ": 98,
      "Ģ": 99,
      "Ĥ": 100,
      "Ħ": 101,
      "Ĵ": 102,
      "ĵ": 103,
      "Ķ": 104,
      "ķ": 105,
      "Ĺ": 106,
      "ĺ": 107,
      "Ļ": 108,
      "ľ": 109,
      "Ŀ": 110,
      "Ġt": 111,
      "he": 112,
      "Ġa": 113,
      "in": 114,
      "Ġthe": 115,
      "Ġs": 116,
      "Ġo": 117,
      "Ġw": 118,
      "re": 119,
      "ha": 120,
      "nd": 121,
      "er": 122,
      "Ġb": 123,
      "is": 124,
      "ing": 125,
      "le": 126,
      "âĢ": 127,
      "Ġm": 128,
      "it": 129,
      "ou": 130,
      "Ġf": 131,
      "Ġc": 132,
      "ed": 133,
      "Ġof": 134,
      "on": 135,
      "čĊ": 136,
      "en": 137,
      "Ġand": 138,
      "Ġin": 139,
      "Ġh": 140,
      "or": 141,
      "ar": 142,
      "ll": 143,
      "Ġto": 144,
      "es": 145,
      "Ġp": 146,
      "Ġd": 147,
      "an": 148,
      "at": 149,
      "as": 150,
      "Ġl": 151,
      "Ġn": 152,
      "om": 153,
      "Ġth": 154,
      "hat": 155,
      "ow": 156,
      "Ġhe": 157,
      "ĠčĊ": 158,
      "ut": 159,
      "Ġha": 160,
      "ly": 161,
      "st": 162,
      "Ġbe": 163,
      "Ġg": 164,
      "Ġthat": 165,
      "Ġe": 166,
      "im": 167,
      "âĢĻ": 168,
      "ĠI": 169,
      "ic": 170,
      "gh": 171,
      "Ġit": 172,
      "se": 173,
      "Ġu": 174,
      "Ġhis": 175,
      "ot": 176,
      "Ġon": 177,
      "ld": 178,
      "Ġst": 179,
      "al": 180,
      "id": 181,
      "Ġy": 182,
      "Ġse": 183,
      "ver": 184,
      "ve": 185,
      "ir": 186,
      "ac": 187,
      "ith": 188,
      "ad": 189,
      "et": 190,
      "ent": 191,
      "ay": 192,
      "Ġwith": 193,
      "Ġas": 194,
      "Ġwh": 195,
      "Ġr": 196,
      "Ġfor": 197,
      "ur": 198,
      "Ġis": 199,
      "Ġre": 200,
      "âĢĶ": 201,
      "ain": 202,
      "ĠA": 203,
      "ght": 204,
      "ĠT": 205,
      "hale": 206,
      "Ġwas": 207,
      "ĠS": 208,
      "âĢľ": 209,
      "ke": 210,
      "ce": 211,
      "ĠâĢľ": 212,
      "oo": 213,
      "Ġall": 214,
      "âĢĿ": 215,
      "Ġwe": 216,
      "il": 217,
      "her": 218,
      "ion": 219,
      "Ġan": 220,
      "Ġat": 221,
      "ter": 222,
      "ch": 223,
      "ight": 224,
      "ore": 225,
      "Ġsh": 226,
      "am": 227,
      "Ġso": 228,
      "Ġfr": 229,
      "Ġwhale": 230,
      "Ġthis": 231,
      "Ġsu": 232,
      "Ġhim": 233,
      "qu": 234,
      "if": 235,
      "Ġnot": 236,
      "ĠB": 237,
      "Ġyou": 238,
      "ill": 239,
      "ous": 240,
      "ast": 241,
      "ro": 242,
      "ip": 243,
      "Ġby": 244,
      "Ġup": 245,
      "ck": 246,
      "and": 247,
      "Ġbut": 248,
      "Ġde": 249,
      "all": 250,
      "Ġfrom": 251,
      "Ġle": 252,
      "ap": 253,
      "ĠW": 254,
      "ul": 255,
      "Ġv": 256,
      "ome": 257,
      "ĠC": 258,
      "Ġme": 259,
      "Ġsp": 260,
      "ss": 261,
      "ble": 262,
      "ard": 263,
      "ag": 264,
      "Ġwhe": 265,
      "Ġor": 266,
      "ĠThe": 267,
      "ould": 268,
      "ong": 269,
      "Ġbo": 270,
      "Ġone": 271,
      "Ġsa": 272,
      "art": 273,
      "Ġli": 274,
      "ant": 275,
      "Ġcon": 276,
      "red": 277,
      "ct": 278,
      "em": 279,
      "out": 280,
      "ri": 281,
      "est": 282,
      "ers": 283,
      "ound": 284,
      "led": 285,
      "ĠP": 286,
      "Ġthere": 287,
      "ĠH": 288,
      "Ġman": 289,
      "Ġhad": 290,
      "Ġal": 291,
      "ess": 292,
      "Ġhave": 293,
      "nt": 294,
      "ough": 295,
      "ost": 296,
      "um": 297,
      "Ġun": 298,
      "Ġint": 299,
      "el": 300,
      "Ġmy": 301,
      "ig": 302,
      "ĠBut": 303,
      "own": 304,
      "Ġwere": 305,
      "us": 306,
      "Ġsome": 307,
      "ich": 308,
      "ose": 309,
      "ĠN": 310,
      "ther": 311,
      "Ġnow": 312,
      "Ġcom": 313,
      "Ġk": 314,
      "Ġne": 315,
      "od": 316,
      "Ġwhich": 317,
      "ort": 318,
      "ak": 319,
      "Ġtheir": 320,
      "ĠF": 321,
      "ĠSt": 322,
      "Ġout": 323,
      "han": 324,
      "un": 325,
      "ust": 326,
      "pe": 327,
      "very": 328,
      "Ġship": 329,
      "lf": 330,
      "Ġare": 331,
      "ist": 332,
      "Ġj": 333,
      "Ġex": 334,
      "Ġthey": 335,
      "Ġye": 336,
      "Ġno": 337,
      "tain": 338,
      "ood": 339,
      "ra": 340,
      "Ġthen": 341,
      "Ġfe": 342,
      "Ġwhen": 343,
      "per": 344,
      "Ġlike": 345,
      "ol": 346,
      "ack": 347,
      "ook": 348,
      "ind": 349,
      "one": 350,
      "reat": 351,
      "ĠM": 352,
      "ide": 353,
      "Ġupon": 354,
      "Ġthem": 355,
      "ue": 356,
      "hab": 357,
      "Ġag": 358,
      "th": 359,
      "Ġinto": 360,
      "ame": 361,
      "Ġpl": 362,
      "Ġab": 363,
      "ish": 364,
      "able": 365,
      "ure": 366,
      "Ġmore": 367,
      "Ġdo": 368,
      "Ġbl": 369,
      "ate": 370,
      "Ġover": 371,
      "ĠAhab": 372,
      "ious": 373,
      "ine": 374,
      "Ġpre": 375,
      ".âĢĿ": 376,
      "po": 377,
      "ĠD": 378,
      "uck": 379,
      "Ġwho": 380,
      "ge": 381,
      "ile": 382,
      "ĠL": 383,
      "Ġother": 384,
      "iv": 385,
      "Ġpo": 386,
      "Ġseem": 387,
      "ĠĠ": 388,
      "Ġwhat": 389,
      "ally": 390,
      "Ġtim": 391,
      "hed": 392,
      "Ġwor": 393,
      "ub": 394,
      "Ġtr": 395,
      "Ġpro": 396,
      "ite": 397,
      "equ": 398,
      "ive": 399,
      "Ġboat": 400,
      "Ġaf": 401,
      "Ġold": 402,
      "av": 403,
      "ie": 404,
      "ĠG": 405,
      "ings": 406,
      "ies": 407,
      "Ġsea": 408,
      "Ġwould": 409,
      "Ġkn": 410,
      "Ġstr": 411,
      "ation": 412,
      "ity": 413,
      "ep": 414,
      "Ġsw": 415,
      "Ġhar": 416,
      "self": 417,
      "Ġbeen": 418,
      "Ġif": 419,
      "Ġfl": 420,
      "Ġthou": 421,
      "Ġtw": 422,
      "less": 423,
      "Ġgo": 424,
      "ick": 425,
      "Ġar": 426,
      "Ġqu": 427,
      "ward": 428,
      "ree": 429,
      "ted": 430,
      "ud": 431,
      "Ġwill": 432,
      "Ġany": 433,
      "Ġagain": 434,
      "Ġcan": 435,
      "Ġdown": 436,
      "Ġhand": 437,
      "ull": 438,
      "ance": 439,
      "ass": 440,
      "ace": 441,
      "fore": 442,
      "ell": 443,
      "ling": 444,
      "Ġthese": 445,
      "Ġsha": 446,
      "Ġher": 447,
      "ake": 448,
      "Ġhead": 449,
      "our": 450,
      "Ġits": 451,
      "ning": 452,
      "tle": 453,
      "way": 454,
      "nder": 455,
      "ab": 456,
      "Ġco": 457,
      "hing": 458,
      "ness": 459,
      "ars": 460,
      "Ġho": 461,
      "Ġonly": 462,
      "Ġwat": 463,
      "pp": 464,
      "Ġlong": 465,
      "aptain": 466,
      "ĠWhale": 467,
      "ire": 468,
      "ks": 469,
      "ĠAnd": 470,
      "eg": 471,
      "Ġbr": 472,
      "ĠO": 473,
      "Ġthr": 474,
      "Ġro": 475,
      "Ġper": 476,
      "Ġsuch": 477,
      "Ġam": 478,
      "ng": 479,
      "Ġus": 480,
      "ubb": 481,
      "ated": 482,
      "age": 483,
      "!âĢĿ": 484,
      "wn": 485,
      "Ġgr": 486,
      "Ġgreat": 487,
      "Ġim": 488,
      "Ġsay": 489,
      "Ġthough": 490,
      "Ġtime": 491,
      "Ġthan": 492,
      "Ġen": 493,
      "ye": 494,
      "Ġpart": 495,
      "Ġcr": 496,
      "Ġsee": 497,
      "Ġvery": 498,
      ",âĢĿ": 499,
      "ven": 500,
      "are": 501,
      "ff": 502,
      "Ġsaid": 503,
      "Ġoff": 504,
      "Ġabout": 505,
      "ink": 506,
      "Ġsc": 507,
      "Ġcl": 508,
      "TE": 509,
      "Ġstill": 510,
      "HA": 511,
      "Ġhere": 512,
      "ĠE": 513,
      "Ġlook": 514,
      "Ġthose": 515,
      "ĠQ": 516,
      "Ġbefore": 517,
      "Ġyet": 518,
      "Ġsl": 519,
      "man": 520,
      "Ġsm": 521,
      "Ġhas": 522,
      "ĠHe": 523,
      "Ġmust": 524,
      "TER": 525,
      "ord": 526,
      "Ġtwo": 527,
      "ise": 528,
      "ĠIt": 529,
      "cc": 530,
      "PTER": 531,
      "Ġway": 532,
      "ĠCHA": 533,
      "Ġafter": 534,
      "ĠCHAPTER": 535,
      "Ġmost": 536,
      "Ġyour": 537,
      "ft": 538,
      "arb": 539,
      "Ġlast": 540,
      "Ġseemed": 541,
      "ild": 542,
      "les": 543,
      "Ġgl": 544,
      "Ġdid": 545,
      "Ġhow": 546,
      "ting": 547,
      "uch": 548,
      "urn": 549,
      "anc": 550,
      "Ġcomp": 551,
      "oy": 552,
      "ark": 553,
      "Ġcha": 554,
      "?âĢĿ": 555,
      "Ġlit": 556,
      "Ġround": 557,
      "au": 558,
      "ĠStubb": 559,
      "ows": 560,
      "ount": 561,
      "ĠTh": 562,
      "most": 563,
      "Ġevery": 564,
      "Ġsail": 565,
      "ueequ": 566,
      "ueequeg": 567,
      "ful": 568,
      "ried": 569,
      "Ġday": 570,
      "pt": 571,
      "Ġad": 572,
      "Ġfir": 573,
      "ade": 574,
      "ath": 575,
      "Ġlittle": 576,
      "ered": 577,
      "rew": 578,
      "ĠIn": 579,
      "Ġharpo": 580,
      "Ġdis": 581,
      "ĠR": 582,
      "ving": 583,
      "Ġpr": 584,
      "ife": 585,
      "Ġmight": 586,
      "Ġwhales": 587,
      "ĠJ": 588,
      "Ġmen": 589,
      "Ġwhere": 590,
      "men": 591,
      "Ġmay": 592,
      "Ġthree": 593,
      "ail": 594,
      "ec": 595,
      "Ġown": 596,
      "Ġthrough": 597,
      "ĠQueequeg": 598,
      "Ġind": 599,
      "Ġtoo": 600,
      "Ġside": 601,
      "ary": 602,
      "li": 603,
      "the": 604,
      "ect": 605,
      "Ġlo": 606,
      "Ġch": 607,
      "Ġcould": 608,
      "ved": 609,
      "ign": 610,
      "iz": 611,
      "omet": 612,
      "Ġcont": 613,
      "head": 614,
      "ever": 615,
      "ian": 616,
      "ry": 617,
      "Ġmuch": 618,
      "Ġbeing": 619,
      "cl": 620,
      "op": 621,
      "Ġour": 622,
      "Ġnever": 623,
      "Ġrem": 624,
      "Ġob": 625,
      "ons": 626,
      "Ġever": 627,
      "Ġwhile": 628,
      "Ġke": 629,
      "Ġ(": 630,
      "Ġfirst": 631,
      "Ġsame": 632,
      "ib": 633,
      "Ġfo": 634,
      "ions": 635,
      "Ġshould": 636,
      "Ġcal": 637,
      "Ġwater": 638,
      "ory": 639,
      "ach": 640,
      "Ġhimself": 641,
      "ors": 642,
      "ice": 643,
      "ĠCaptain": 644,
      "ment": 645,
      "igh": 646,
      "arbuck": 647,
      "ang": 648,
      "Ġgood": 649,
      "Ġeven": 650,
      "ĠFor": 651,
      "Ġsomet": 652,
      "Ġback": 653,
      "Ġbet": 654,
      "ere": 655,
      "Ġdes": 656,
      "int": 657,
      "ern": 658,
      "Ġmat": 659,
      "Ġstand": 660,
      "ĠWh": 661,
      "Ġinst": 662,
      "ering": 663,
      "ĠStarbuck": 664,
      "Ġcons": 665,
      "ible": 666,
      "ular": 667,
      "ond": 668,
      "Ġthing": 669,
      "sh": 670,
      "Ġknow": 671,
      "Ġthought": 672,
      "wards": 673,
      "og": 674,
      "ped": 675,
      "Ġcar": 676,
      "Ġalmost": 677,
      "ial": 678,
      "Ġbot": 679,
      "orn": 680,
      "Ġdeck": 681,
      "ĠY": 682,
      "ock": 683,
      "Ġworld": 684,
      "ily": 685,
      "ps": 686,
      "Ġent": 687,
      "act": 688,
      "ĠPequ": 689,
      "ĠPequod": 690,
      "aw": 691,
      "ied": 692,
      "ob": 693,
      "ical": 694,
      "sel": 695,
      "ves": 696,
      "Ġmade": 697,
      "ans": 698,
      "Ġcomm": 699,
      "Ġpres": 700,
      "te": 701,
      "erm": 702,
      "Ġsub": 703,
      "ty": 704,
      "Ġste": 705,
      "Ġwhite": 706,
      "hes": 707,
      "here": 708,
      "Ġsort": 709,
      "llow": 710,
      "ather": 711,
      "Ġwell": 712,
      "Ġaway": 713,
      "yes": 714,
      "ating": 715,
      "ber": 716,
      "Ġlife": 717,
      "we": 718,
      "Ġmar": 719,
      "Ġfar": 720,
      "Ġdr": 721,
      "Ġwha": 722,
      "Ġend": 723,
      "land": 724,
      "Ġacc": 725,
      "other": 726,
      "Ġres": 727,
      "aking": 728,
      "ah": 729,
      "mer": 730,
      "ĠSo": 731,
      "Ġshe": 732,
      "Ġwind": 733,
      "ens": 734,
      "Ġhu": 735,
      "Ġseen": 736,
      "Ġamong": 737,
      "Ġpass": 738,
      "Ġmany": 739,
      "Ġturn": 740,
      "Ġcrew": 741,
      "Ġeyes": 742,
      "ence": 743,
      "Ġland": 744,
      "Ġnight": 745,
      "Ġunder": 746,
      "Ġsun": 747,
      "Ġop": 748,
      "Ġwithout": 749,
      "ced": 750,
      "ged": 751,
      "Ġfore": 752,
      "den": 753,
      "Ġsk": 754,
      "Ġcas": 755,
      "Ġcried": 756,
      "Ġ1": 757,
      "Ġbod": 758,
      "perm": 759,
      "Ġdist": 760,
      "Ġimp": 761,
      "ched": 762,
      "vi": 763,
      "Ġtell": 764,
      "ener": 765,
      "Ġheart": 766,
      "der": 767,
      "ove": 768,
      "âĢĺ": 769,
      "Ġlight": 770,
      "Ġinv": 771,
      "Ġinter": 772,
      "ĠSperm": 773,
      "ucket": 774,
      "!âĢĶ": 775,
      "Ġair": 776,
      "Ġlow": 777,
      "Ġbec": 778,
      "Ġonce": 779,
      "Ġboats": 780,
      "king": 781,
      "Ġsur": 782,
      "Ġcome": 783,
      "iled": 784,
      "Ġbel": 785,
      "als": 786,
      "irc": 787,
      "ching": 788,
      "read": 789,
      "ĠĠĠĠ": 790,
      "pl": 791,
      "Ġsir": 792,
      "Ġfull": 793,
      "Ġinc": 794,
      "Ġthink": 795,
      "Ġlet": 796,
      "pect": 797,
      "ress": 798,
      "ash": 799,
      "Ġspe": 800,
      "Ġsmall": 801,
      "ertain": 802,
      "Ġcur": 803,
      "Ġalong": 804,
      "ung": 805,
      "Ġwhole": 806,
      "Ġarm": 807,
      "Ġshar": 808,
      "Ġte": 809,
      "Ġheav": 810,
      "Ġhalf": 811,
      "nce": 812,
      "ange": 813,
      "ask": 814,
      "ci": 815,
      "Ġtill": 816,
      "Ġfound": 817,
      "ures": 818,
      "Ġagainst": 819,
      "Ġhands": 820,
      "ave": 821,
      "ew": 822,
      "Ġins": 823,
      "Ġthings": 824,
      "ĠThere": 825,
      "ix": 826,
      "Ġsle": 827,
      "Ġmon": 828,
      "Ġsec": 829,
      "ĠAs": 830,
      "az": 831,
      "air": 832,
      "ts": 833,
      "Ġinf": 834,
      "Ġbeg": 835,
      "Ġleg": 836,
      "Ġharpoone": 837,
      "Ġir": 838,
      "Ġthee": 839,
      "Ġbro": 840,
      "Ġcame": 841,
      "Ġcirc": 842,
      "Ġem": 843,
      "ations": 844,
      "Ġhold": 845,
      "Ġthy": 846,
      "ĠNow": 847,
      "ale": 848,
      "so": 849,
      "Ġcaptain": 850,
      "Ġpe": 851,
      "oment": 852,
      "Ġeach": 853,
      "Ġsoon": 854,
      "Ġfeet": 855,
      "ne": 856,
      "Ġmoment": 857,
      "Ġpresent": 858,
      "Ġsou": 859,
      "ene": 860,
      "Ġpur": 861,
      "ific": 862,
      "ĠGod": 863,
      "ho": 864,
      "Ġhum": 865,
      "athan": 866,
      "Ġget": 867,
      "antucket": 868,
      "Ġstrange": 869,
      "Ġmast": 870,
      "ters": 871,
      "Ġhard": 872,
      "ingly": 873,
      "vel": 874,
      "Ġblack": 875,
      "ause": 876,
      "viathan": 877,
      "sed": 878,
      "hen": 879,
      "Ġline": 880,
      "Ġsperm": 881,
      "ĠNantucket": 882,
      "med": 883,
      "Ġapp": 884,
      "Ġsight": 885,
      "ways": 886,
      "ween": 887,
      "ping": 888,
      "Ġsn": 889,
      "ason": 890,
      "iff": 891,
      "Ġdead": 892,
      "ances": 893,
      "Ġfish": 894,
      "Ġcertain": 895,
      "aring": 896,
      "ĠWhat": 897,
      "Ġsaw": 898,
      "ngth": 899,
      "Ġbetween": 900,
      "ken": 901,
      "ying": 902,
      "itud": 903,
      "Ġlar": 904,
      "Ġjust": 905,
      "Ġtake": 906,
      "iness": 907,
      "Ġnat": 908,
      "Ġsomething": 909,
      "Ġhel": 910,
      "Ġeye": 911,
      "Ġboth": 912,
      "ool": 913,
      "ĠFl": 914,
      "Ġplace": 915,
      "bo": 916,
      "Ġgener": 917,
      "Ġwhaling": 918,
      "Ġwr": 919,
      "Ġhigh": 920,
      "ict": 921,
      "Ġset": 922,
      "Ġvoy": 923,
      "Ġtimes": 924,
      "Ġcalled": 925,
      "ject": 926,
      "ides": 927,
      "isher": 928,
      "Ġbody": 929,
      "ten": 930,
      "ug": 931,
      "ren": 932,
      "Ġmake": 933,
      "Ġheard": 934,
      "outh": 935,
      "tern": 936,
      "ross": 937,
      "ĠV": 938,
      "ished": 939,
      "Ġtowards": 940,
      "Ġfeel": 941,
      "ared": 942,
      "eed": 943,
      "ins": 944,
      "Ġhor": 945,
      "Ġright": 946,
      "Ġanother": 947,
      "Ġsoul": 948,
      "ĠFlask": 949,
      "ured": 950,
      "ition": 951,
      "Ġche": 952,
      "ane": 953,
      "Ġthus": 954,
      "Ġword": 955,
      "Ġcann": 956,
      "vent": 957,
      "vil": 958,
      "Ġwo": 959,
      "hant": 960,
      "Ġel": 961,
      "Ġreg": 962,
      "uff": 963,
      "ened": 964,
      "reen": 965,
      "err": 966,
      "its": 967,
      "arn": 968,
      "Ġdark": 969,
      "Ġrep": 970,
      "Ġpoor": 971,
      "Ġwild": 972,
      "nded": 973,
      "ĠAt": 974,
      "Ġnear": 975,
      "Ġinstant": 976,
      "Ġrun": 977,
      "ither": 978,
      "Ġfur": 979,
      "Ġdou": 980,
      "Ġdon": 981,
      "ates": 982,
      "imes": 983,
      "Ġnothing": 984,
      ",âĢĶ": 985,
      "orm": 986,
      "eth": 987,
      "ĠLe": 988,
      "ual": 989,
      "Ġwent": 990,
      "amp": 991,
      "ĠThis": 992,
      "Ġhat": 993,
      "Ġbed": 994,
      "Ġbur": 995,
      "Ġchan": 996,
      "Ġstre": 997,
      "Ġread": 998,
      "Ġspout": 999,
      "arted": 1000,
      "like": 1001,
      "The": 1002,
      "ier": 1003,
      "Ġfin": 1004,
      "Ġcap": 1005,
      "ank": 1006,
      "ult": 1007,
      "dden": 1008,
      "iar": 1009,
      "Ġbre": 1010,
      "ising": 1011,
      "Ġface": 1012,
      "Ġdra": 1013,
      "Ġlay": 1014,
      "ether": 1015,
      "ently": 1016,
      "ained": 1017,
      "Ġtou": 1018,
      "Ġmid": 1019,
      "Ġcra": 1020,
      "Ġcreat": 1021,
      "ets": 1022,
      "Ġatt": 1023,
      "Ġlength": 1024,
      "Ġfew": 1025,
      "Ġmind": 1026,
      "Ġyears": 1027,
      "Ġconsid": 1028,
      "Ġopen": 1029,
      "ee": 1030,
      "Ġfisher": 1031,
      "Ġcle": 1032,
      "ceed": 1033,
      "Ġconc": 1034,
      "akes": 1035,
      "Ġposs": 1036,
      "ĠJon": 1037,
      "ĠWhite": 1038,
      "Ġvoyage": 1039,
      "Ġoil": 1040,
      "haps": 1041,
      "leg": 1042,
      "Ġput": 1043,
      "Ġname": 1044,
      "Ġunc": 1045,
      "Ġdoes": 1046,
      "abin": 1047,
      "ably": 1048,
      "Ġsleep": 1049,
      "ging": 1050,
      "Ġsign": 1051,
      "res": 1052,
      "Ġbow": 1053,
      "Ġcut": 1054,
      "Ġstood": 1055,
      "ump": 1056,
      "Ġplain": 1057,
      "ked": 1058,
      "Ġact": 1059,
      "Ġwar": 1060,
      "ont": 1061,
      "Ġham": 1062,
      "ster": 1063,
      "Ġere": 1064,
      "Ġseas": 1065,
      "Ġsudden": 1066,
      "Ġswe": 1067,
      "hy": 1068,
      "Ġnor": 1069,
      "Ġalso": 1070,
      "Ġjaw": 1071,
      "iously": 1072,
      "Ġlarge": 1073,
      "ĠâĢĶ": 1074,
      "Ġshall": 1075,
      "Ġharpoon": 1076,
      "Ġmatter": 1077,
      "Ġap": 1078,
      "Ġbene": 1079,
      "Ġfire": 1080,
      "Ġwhose": 1081,
      "Ġrec": 1082,
      "ĠOh": 1083,
      "os": 1084,
      "wing": 1085,
      "Ġcor": 1086,
      "Ġhour": 1087,
      "Ġitself": 1088,
      "Ġrest": 1089,
      "Ġdeep": 1090,
      "arth": 1091,
      "Ġseems": 1092,
      "Ġflo": 1093,
      "Ġkeep": 1094,
      "oby": 1095,
      "ĠJonah": 1096,
      "ĠâĢĻ": 1097,
      "Ġtail": 1098,
      "Ġsin": 1099,
      "Ġoce": 1100,
      "Ġbus": 1101,
      "Ġcabin": 1102,
      "Ġspr": 1103,
      "ĠNor": 1104,
      "ĠDick": 1105,
      "Ġpoint": 1106,
      "aves": 1107,
      "ecul": 1108,
      "Ġentire": 1109,
      "Ġes": 1110,
      "Ġsound": 1111,
      "oud": 1112,
      "eness": 1113,
      "ically": 1114,
      "ains": 1115,
      "selves": 1116,
      "Ġdoub": 1117,
      "Ġsing": 1118,
      "nding": 1119,
      "Ġmor": 1120,
      "Ġmain": 1121,
      "Ġform": 1122,
      "ief": 1123,
      "Ġperhaps": 1124,
      "Ġindeed": 1125,
      "Ġsometimes": 1126,
      "ship": 1127,
      "Ġiron": 1128,
      "ner": 1129,
      "Ġbest": 1130,
      "lent": 1131,
      "Ġmo": 1132,
      "oun": 1133,
      "Ġpecul": 1134,
      "Ġgiv": 1135,
      "ural": 1136,
      "Ġreason": 1137,
      "ift": 1138,
      "Ġyoung": 1139,
      "ĠPe": 1140,
      "Ġalways": 1141,
      "Ġjo": 1142,
      "Ġaff": 1143,
      "Ġknown": 1144,
      "Ġpeculiar": 1145,
      "ces": 1146,
      "ĠK": 1147,
      "Ġbul": 1148,
      "Ġboard": 1149,
      "ĠNo": 1150,
      "Ġgoing": 1151,
      "irect": 1152,
      "Ġdays": 1153,
      "Ġcommand": 1154,
      "Ġfour": 1155,
      "Ġdro": 1156,
      "ĠInd": 1157,
      "Ġexp": 1158,
      "ĠMoby": 1159,
      "Ġprof": 1160,
      "Ġchar": 1161,
      "oc": 1162,
      "ually": 1163,
      "wise": 1164,
      "ines": 1165,
      "ities": 1166,
      "ird": 1167,
      "âĢĶâĢľ": 1168,
      "ape": 1169,
      "Ġves": 1170,
      "Ġships": 1171,
      "ildad": 1172,
      "Ġcomple": 1173,
      "?âĢĶ": 1174,
      "but": 1175,
      "ru": 1176,
      "Ġocc": 1177,
      "icular": 1178,
      "Ġstra": 1179,
      "ents": 1180,
      "Ġwithin": 1181,
      "Ġass": 1182,
      "Ġmean": 1183,
      "Ġstanding": 1184,
      "Ġharpooneer": 1185,
      "itude": 1186,
      "ĠLeviathan": 1187,
      "Ġvessel": 1188,
      "rem": 1189,
      "Ġmouth": 1190,
      "Ġcall": 1191,
      "Ġlad": 1192,
      "owed": 1193,
      "ime": 1194,
      "ĠBildad": 1195,
      "Ġleast": 1196,
      "Ġlive": 1197,
      "Ġext": 1198,
      "by": 1199,
      "that": 1200,
      "wh": 1201,
      "ined": 1202,
      "Ġsqu": 1203,
      "Ġdone": 1204,
      "illed": 1205,
      "Ġsuper": 1206,
      "Ġvis": 1207,
      "Ġvast": 1208,
      "ĠThey": 1209,
      "Ġboy": 1210,
      "Ġliving": 1211,
      "Ġblood": 1212,
      "Ġprec": 1213,
      "ived": 1214,
      "Ġenough": 1215,
      "ĠEng": 1216,
      "Ġhowever": 1217,
      "aught": 1218,
      "Ġcircum": 1219,
      "Ġbeneath": 1220,
      "su": 1221,
      "Ġmis": 1222,
      "Ġfast": 1223,
      "ower": 1224,
      "ĠThat": 1225,
      "Ġshort": 1226,
      "Ġwhether": 1227,
      "ĠPip": 1228,
      "Ġtrue": 1229,
      "kes": 1230,
      "sp": 1231,
      "ones": 1232,
      "Ġgent": 1233,
      "aced": 1234,
      "Ġdeath": 1235,
      "Ġdevil": 1236,
      "Ġspec": 1237,
      "aken": 1238,
      "ĠPeleg": 1239,
      "ĠU": 1240,
      "Ġwood": 1241,
      "erable": 1242,
      "Ġmate": 1243,
      "Ġfre": 1244,
      "ase": 1245,
      "uth": 1246,
      "Ġret": 1247,
      "Ġsupp": 1248,
      "ĠCh": 1249,
      "Ġsav": 1250,
      "Ġart": 1251,
      "Ġsmo": 1252,
      "Ġcontin": 1253,
      "Ġbecause": 1254,
      "be": 1255,
      "iver": 1256,
      "inted": 1257,
      "Ġsim": 1258,
      "Ġfind": 1259,
      "Ġhear": 1260,
      "Ġele": 1261,
      "Ġstri": 1262,
      "Ġwhalemen": 1263,
      "Ġnew": 1264,
      "ized": 1265,
      "clud": 1266,
      "Ġfollow": 1267,
      "mon": 1268,
      "tom": 1269,
      "Ġmark": 1270,
      "Ġfam": 1271,
      "Ġcol": 1272,
      "Ġthous": 1273,
      "Ġclose": 1274,
      "Ġadv": 1275,
      "Ġcase": 1276,
      "Ġcannot": 1277,
      "Ġocean": 1278,
      "Ġgentle": 1279,
      "Ġthousand": 1280,
      "ple": 1281,
      "Ġsat": 1282,
      "Ġcour": 1283,
      "arr": 1284,
      "lly": 1285,
      "Ġearth": 1286,
      "ilt": 1287,
      "Ġsol": 1288,
      "ously": 1289,
      "Ġdisc": 1290,
      "anger": 1291,
      "Ġmorning": 1292,
      "lish": 1293,
      "oft": 1294,
      "sing": 1295,
      "xt": 1296,
      "ĠâĢĺ": 1297,
      "Ġoars": 1298,
      "Ġmag": 1299,
      "Ġoften": 1300,
      "Ġport": 1301,
      "owing": 1302,
      "Ġgive": 1303,
      "urning": 1304,
      "Ġleft": 1305,
      "ards": 1306,
      "els": 1307,
      "Ġmyself": 1308,
      "ately": 1309,
      "Ġwork": 1310,
      "Ġwaters": 1311,
      "Ġwonder": 1312,
      "Ġbusiness": 1313,
      ";âĢĶ": 1314,
      "ches": 1315,
      "ser": 1316,
      "Ġhome": 1317,
      "Ġseam": 1318,
      "Ġconf": 1319,
      "umb": 1320,
      "Ġenc": 1321,
      "Ġturned": 1322,
      "ton": 1323,
      "where": 1324,
      "Ġwant": 1325,
      "Ġbows": 1326,
      "Ġmad": 1327,
      "ense": 1328,
      "aces": 1329,
      "Ġrather": 1330,
      "ĠâĢľâĢĺ": 1331,
      "Ġdep": 1332,
      "Ġless": 1333,
      "ĠHow": 1334,
      "Ġgeneral": 1335,
      "ef": 1336,
      "gether": 1337,
      "how": 1338,
      "ming": 1339,
      "rous": 1340,
      "Ġver": 1341,
      "Ġterr": 1342,
      "Ġcent": 1343,
      "Ġtogether": 1344,
      "Ġdirect": 1345,
      "Ġorder": 1346,
      "thing": 1347,
      "Ġroll": 1348,
      "Ġlooked": 1349,
      "Ġadd": 1350,
      "up": 1351,
      "Ġtop": 1352,
      "Ġpers": 1353,
      "Ġref": 1354,
      "ĠTo": 1355,
      "tering": 1356,
      "antic": 1357,
      "),": 1358,
      "gr": 1359,
      "kn": 1360,
      "Ġac": 1361,
      "Ġsy": 1362,
      "ised": 1363,
      "ought": 1364,
      "Ġhaving": 1365,
      "ided": 1366,
      "Ġdel": 1367,
      "ages": 1368,
      "ĠMr": 1369,
      "aving": 1370,
      "iffere": 1371,
      "Ġfurther": 1372,
      ".âĢĶ": 1373,
      "mb": 1374,
      "pent": 1375,
      "Ġser": 1376,
      "ndred": 1377,
      "Ġmin": 1378,
      "ited": 1379,
      "Ġcount": 1380,
      "Ġpit": 1381,
      "Ġneed": 1382,
      "Ġfear": 1383,
      "iend": 1384,
      "ully": 1385,
      "Ġhundred": 1386,
      "Ġsince": 1387,
      "ĠIndian": 1388,
      "de": 1389,
      "Ġmer": 1390,
      "ouse": 1391,
      "Ġwhy": 1392,
      "Ġmere": 1393,
      "agg": 1394,
      "Ġprev": 1395,
      "iew": 1396,
      "Ġslow": 1397,
      "Ġbetter": 1398,
      "Ġbottom": 1399,
      "Ġlower": 1400,
      "ixed": 1401,
      "What": 1402,
      "iet": 1403,
      "ric": 1404,
      "what": 1405,
      "Ġwond": 1406,
      "Ġcare": 1407,
      "ative": 1408,
      "ident": 1409,
      "ĠTash": 1410,
      "cept": 1411,
      "Ġsup": 1412,
      "ortal": 1413,
      "Ġthemselves": 1414,
      "Ġswim": 1415,
      "ibly": 1416,
      "Ġcalm": 1417,
      "Ġinterv": 1418,
      "Ġstraight": 1419,
      "pr": 1420,
      "Ġaye": 1421,
      "Ġsile": 1422,
      "har": 1423,
      "Ġgone": 1424,
      "Ġund": 1425,
      "Ġrel": 1426,
      "Ġheads": 1427,
      "Ġcommon": 1428,
      "Ġbroad": 1429,
      "Ġcomplete": 1430,
      "io": 1431,
      "ls": 1432,
      "spe": 1433,
      "Ġ*": 1434,
      "Ġmur": 1435,
      "Ġfine": 1436,
      "stance": 1437,
      "ached": 1438,
      "ĠWith": 1439,
      "Ġvo": 1440,
      "Ġord": 1441,
      "ĠMe": 1442,
      "Ġgold": 1443,
      "Ġquick": 1444,
      "Ġelse": 1445,
      "ient": 1446,
      "ike": 1447,
      "oes": 1448,
      "teg": 1449,
      "Ġaw": 1450,
      "inct": 1451,
      "Ġmot": 1452,
      "Ġhapp": 1453,
      "Ġgreen": 1454,
      "ivory": 1455,
      "Ġgrand": 1456,
      "Ġparticular": 1457,
      "Ġchase": 1458,
      "Ġobject": 1459,
      "Aye": 1460,
      "fully": 1461,
      "mast": 1462,
      "ze": 1463,
      "Ġmut": 1464,
      "Ġmount": 1465,
      "Ġfle": 1466,
      "Ġpull": 1467,
      "iding": 1468,
      "ention": 1469,
      "Ġforth": 1470,
      "Ġtherefore": 1471,
      "ĠHis": 1472,
      "Ġplan": 1473,
      "Ġabove": 1474,
      "Ġquar": 1475,
      "Ġcru": 1476,
      "Ġlooking": 1477,
      "Ġsecond": 1478,
      "tego": 1479,
      "00": 1480,
      "cr": 1481,
      "sw": 1482,
      "to": 1483,
      "Ġivory": 1484,
      "Ġtem": 1485,
      "Ġwide": 1486,
      "Ġfact": 1487,
      "Ġple": 1488,
      "Ġlat": 1489,
      "ĠIf": 1490,
      "ots": 1491,
      "Ġstern": 1492,
      "uring": 1493,
      "ĠSe": 1494,
      "ils": 1495,
      "Ġspir": 1496,
      "Ġtrans": 1497,
      "Ġgoes": 1498,
      "ĠRight": 1499,
      "Ġaccount": 1500,
      "Ġspeak": 1501,
      "Ġcurious": 1502,
      "Ġharpooneers": 1503,
      "ĠTashtego": 1504,
      "lo": 1505,
      "ler": 1506,
      "side": 1507,
      "Ġsix": 1508,
      "ream": 1509,
      "lect": 1510,
      "Ġmass": 1511,
      "Ġbeh": 1512,
      "Ġrig": 1513,
      "ĠBy": 1514,
      "Ġlean": 1515,
      "Ġview": 1516,
      "Ġcomes": 1517,
      "ists": 1518,
      "rave": 1519,
      "ield": 1520,
      "Ġstrong": 1521,
      "Ġflu": 1522,
      "Ġquest": 1523,
      "Ġground": 1524,
      "ffin": 1525,
      "Ġcontr": 1526,
      "meric": 1527,
      "Ġbegan": 1528,
      "Ġcraft": 1529,
      "ĠEnglish": 1530,
      "eer": 1531,
      "ior": 1532,
      "mit": 1533,
      "Ġbook": 1534,
      "Ġcross": 1535,
      "Ġhon": 1536,
      "Ġgaz": 1537,
      "Ġeas": 1538,
      "ĠAl": 1539,
      "ĠAmeric": 1540,
      "ipe": 1541,
      "ĠThen": 1542,
      "Ġaloft": 1543,
      "isted": 1544,
      "Ġfellow": 1545,
      "Ġwatch": 1546,
      "Ġhunt": 1547,
      "Ġsavage": 1548,
      "aid": 1549,
      "old": 1550,
      "Ġtaken": 1551,
      "Ġturning": 1552,
      "Ġbit": 1553,
      "Ġfair": 1554,
      "Ġcast": 1555,
      "Ġred": 1556,
      "ĠWhen": 1557,
      "elt": 1558,
      "ĠNot": 1559,
      "ĠNew": 1560,
      "Ġrope": 1561,
      "Ġfishery": 1562,
      "Ġappe": 1563,
      "Ġmagn": 1564,
      "dle": 1565,
      "par": 1566,
      "Ġut": 1567,
      "ret": 1568,
      "esides": 1569,
      "Ġgu": 1570,
      "ries": 1571,
      "ĠDe": 1572,
      "Ġprop": 1573,
      "Ġswift": 1574,
      "Ġrock": 1575,
      "Ġchap": 1576,
      "Ġsailors": 1577,
      "theless": 1578,
      "Ġchief": 1579,
      "Ġobser": 1580,
      "Ġsharp": 1581,
      "Ġbroken": 1582,
      "penter": 1583,
      "Ġbehind": 1584,
      "br": 1585,
      "ead": 1586,
      "under": 1587,
      "war": 1588,
      "Ġtoss": 1589,
      "Ġpri": 1590,
      "Ġrus": 1591,
      "Ġforward": 1592,
      "iling": 1593,
      "Ġlee": 1594,
      "Ġvar": 1595,
      "Ġtry": 1596,
      "Ġproper": 1597,
      "ĠOn": 1598,
      "Ġsailor": 1599,
      "Ġtook": 1600,
      "ople": 1601,
      "ments": 1602,
      "board": 1603,
      "Ġhamm": 1604,
      "Ġslowly": 1605,
      "Th": 1606,
      "cast": 1607,
      "eel": 1608,
      "ma": 1609,
      "und": 1610,
      "Ġwa": 1611,
      "Ġwaves": 1612,
      "Ġbreat": 1613,
      "Ġfif": 1614,
      "Ġcook": 1615,
      "enc": 1616,
      "Ġdiv": 1617,
      "Ġthick": 1618,
      "str": 1619,
      "ĠIs": 1620,
      "Ġuse": 1621,
      "Ġstart": 1622,
      "Ġrece": 1623,
      "Ġansw": 1624,
      "rop": 1625,
      "igin": 1626,
      "Ġcoming": 1627,
      "ods": 1628,
      "Ġstranger": 1629,
      "Ġused": 1630,
      "Ġcompan": 1631,
      "heads": 1632,
      "Ġstead": 1633,
      "Ġdrag": 1634,
      "Ġsharks": 1635,
      "Ġhelm": 1636,
      "aus": 1637,
      "ger": 1638,
      "uous": 1639,
      "Ġtaking": 1640,
      "aster": 1641,
      "ute": 1642,
      "Ġstory": 1643,
      "Ġsever": 1644,
      "ays": 1645,
      "Ġfriend": 1646,
      "Ġkind": 1647,
      "Ġnoble": 1648,
      "Ġfell": 1649,
      "Ġshad": 1650,
      "Ġroom": 1651,
      "Ġmighty": 1652,
      "Ġkept": 1653,
      "Ġsurf": 1654,
      "Ġbelow": 1655,
      "cially": 1656,
      "bed": 1657,
      "for": 1658,
      "oard": 1659,
      "Ġtable": 1660,
      "Ġsit": 1661,
      "len": 1662,
      "Ġtold": 1663,
      "Ġnum": 1664,
      "stand": 1665,
      "Ġgot": 1666,
      "ades": 1667,
      "ĠAr": 1668,
      "ĠAll": 1669,
      "Ġsum": 1670,
      "Ġsure": 1671,
      "ĠBe": 1672,
      "ĠPer": 1673,
      "Ġnext": 1674,
      "Ġcry": 1675,
      "ancing": 1676,
      "Ġteeth": 1677,
      "Ġpurp": 1678,
      "Ġpursu": 1679,
      "Ġchance": 1680,
      "Ġbreak": 1681,
      "Ġvoice": 1682,
      "Ġseveral": 1683,
      "tered": 1684,
      "Ġten": 1685,
      "Ġtri": 1686,
      "reg": 1687,
      "ert": 1688,
      "Ġbat": 1689,
      "Ġbones": 1690,
      "Ġmine": 1691,
      "Ġfat": 1692,
      "Ġfree": 1693,
      "Ġlost": 1694,
      "oose": 1695,
      "Ġleviathan": 1696,
      "Ġval": 1697,
      "aged": 1698,
      "ants": 1699,
      "olog": 1700,
      "Ġdoor": 1701,
      "Ġoffic": 1702,
      "ĠHere": 1703,
      "ĠYet": 1704,
      "Ġmarin": 1705,
      "Ġheaven": 1706,
      "Ġmonster": 1707,
      "hold": 1708,
      "Ġhelp": 1709,
      "Ġtouching": 1710,
      "Ġsuddenly": 1711,
      "Ġprecise": 1712,
      "co": 1713,
      "Ġbarb": 1714,
      "Ġmild": 1715,
      "Ġfly": 1716,
      "ening": 1717,
      "Ġdim": 1718,
      "ats": 1719,
      "oth": 1720,
      "acing": 1721,
      "Ġra": 1722,
      "ĠTr": 1723,
      "Ġsoft": 1724,
      "Ġwhaleman": 1725,
      "Ġmeans": 1726,
      "pecially": 1727,
      "Ġwhatever": 1728,
      "Ġprod": 1729,
      "Ġstruck": 1730,
      "Ġhope": 1731,
      "Ġimm": 1732,
      "Ġslight": 1733,
      "ĠThough": 1734,
      "ĠYou": 1735,
      "Ġnatural": 1736,
      "Ġdoubt": 1737,
      "Ġquarter": 1738,
      "night": 1739,
      "Ġide": 1740,
      "Ġast": 1741,
      "Ġske": 1742,
      "Ġwake": 1743,
      "Ġcaught": 1744,
      "Ġhouse": 1745,
      "Ġtow": 1746,
      "Ġpower": 1747,
      "Ġdet": 1748,
      "Ġdart": 1749,
      "Ġdiffere": 1750,
      "Ġlance": 1751,
      "Ġev": 1752,
      "Ġequ": 1753,
      "Ġstep": 1754,
      "Ġwhom": 1755,
      "Ġrol": 1756,
      "aint": 1757,
      "ĠSp": 1758,
      "Ġdef": 1759,
      "Ġsomehow": 1760,
      "iles": 1761,
      "ĠLord": 1762,
      "Ġknew": 1763,
      "Ġcoast": 1764,
      "Ġsays": 1765,
      "Ġrespect": 1766,
      "Ġinvest": 1767,
      "Ġregular": 1768,
      "Ġperson": 1769,
      "Ġpurpose": 1770,
      "Ġrolled": 1771,
      "cess": 1772,
      "fort": 1773,
      "ky": 1774,
      "rist": 1775,
      "sc": 1776,
      "erning": 1777,
      "Ġbar": 1778,
      "ises": 1779,
      "inging": 1780,
      "Ġmaking": 1781,
      "Ġfurn": 1782,
      "Ġcat": 1783,
      "ashed": 1784,
      "Ġnigh": 1785,
      "Ġaspect": 1786,
      "Ġrap": 1787,
      "ĠAn": 1788,
      "ames": 1789,
      "Ġleap": 1790,
      "ĠWe": 1791,
      "Ġorigin": 1792,
      "Ġblue": 1793,
      "ĠGreen": 1794,
      "ancy": 1795,
      "Ġfoot": 1796,
      "Ġdesc": 1797,
      "Ġpeople": 1798,
      "Ġrunning": 1799,
      "Ġcreature": 1800,
      "Ġclear": 1801,
      "Ġhours": 1802,
      "Ġespecially": 1803,
      "Ġdropp": 1804,
      "Ġseamen": 1805,
      "Ġwondrous": 1806,
      "castle": 1807,
      "Ġsurface": 1808,
      "chan": 1809,
      "iest": 1810,
      "over": 1811,
      "unt": 1812,
      "ery": 1813,
      "Ġmod": 1814,
      "Ġmist": 1815,
      "Ġmortal": 1816,
      "Ġfixed": 1817,
      "Ġfelt": 1818,
      "Ġpal": 1819,
      "Ġdri": 1820,
      "see": 1821,
      "Ġstorm": 1822,
      "ality": 1823,
      "Ġwhit": 1824,
      "Ġdec": 1825,
      "Ġspo": 1826,
      "bled": 1827,
      "Ġplay": 1828,
      "Ġquite": 1829,
      "Ġqueer": 1830,
      "Ġanything": 1831,
      "Ġparts": 1832,
      "ĠQu": 1833,
      "lied": 1834,
      "Ġpassed": 1835,
      "Ġbelong": 1836,
      "Ġcourse": 1837,
      "OR": 1838,
      "end": 1839,
      "ia": 1840,
      "kilt": 1841,
      "inks": 1842,
      "Ġwall": 1843,
      "Ġbone": 1844,
      "iss": 1845,
      "Ġfier": 1846,
      "Ġhur": 1847,
      "Ġhun": 1848,
      "Ġpar": 1849,
      "oman": 1850,
      "Ġgun": 1851,
      "Ġunt": 1852,
      "Ġreve": 1853,
      "antly": 1854,
      "pos": 1855,
      "Ġbrow": 1856,
      "Ġsaying": 1857,
      "Ġmates": 1858,
      "Ġcarpenter": 1859,
      "Ġsky": 1860,
      "cient": 1861,
      "Ġhoriz": 1862,
      "Ġesc": 1863,
      ".âĢĻ": 1864,
      "ned": 1865,
      "oh": 1866,
      "Ġign": 1867,
      "Ġbill": 1868,
      "Ġph": 1869,
      "Ġdest": 1870,
      "Ġeff": 1871,
      "acle": 1872,
      "Ġisland": 1873,
      "ified": 1874,
      "rible": 1875,
      "pend": 1876,
      "ĠMan": 1877,
      "Ġblind": 1878,
      "ively": 1879,
      "Ġchild": 1880,
      "erest": 1881,
      "Ġcarry": 1882,
      "Ġdistance": 1883,
      "Ġhuman": 1884,
      "Ġsnow": 1885,
      "Ġregard": 1886,
      "Ġplainly": 1887,
      "Ġsingle": 1888,
      "ĠKing": 1889,
      "Ġoccas": 1890,
      "Ġsilent": 1891,
      "aul": 1892,
      "ex": 1893,
      "het": 1894,
      "Ġsal": 1895,
      "Ġble": 1896,
      "Ġmakes": 1897,
      "Ġdarted": 1898,
      "oms": 1899,
      "Ġgave": 1900,
      "alk": 1901,
      "Ġrib": 1902,
      "ilar": 1903,
      "Ġsho": 1904,
      "Ġsole": 1905,
      "ifted": 1906,
      "Ġlead": 1907,
      "Ġvic": 1908,
      "ĠCape": 1909,
      "Ġspl": 1910,
      "Ġsailed": 1911,
      "Ġconclud": 1912,
      "ĠPar": 1913,
      "Ġmanner": 1914,
      "Ġalt": 1915,
      "Ġalone": 1916,
      "Ġkill": 1917,
      "Ġjack": 1918,
      "ĠLet": 1919,
      "Ġproceed": 1920,
      "Ġbrain": 1921,
      "Ġbrought": 1922,
      "ubber": 1923,
      "Ġeng": 1924,
      "Ġconsider": 1925,
      "Ġconcerning": 1926,
      "ĠUp": 1927,
      "ĠChrist": 1928,
      "Ġtemp": 1929,
      "warks": 1930,
      "Ġvarious": 1931,
      "Ġskele": 1932,
      "Oh": 1933,
      "St": 1934,
      "hore": 1935,
      "jo": 1936,
      "right": 1937,
      "Ġill": 1938,
      "inary": 1939,
      "Ġmus": 1940,
      "Ġfive": 1941,
      "Ġpul": 1942,
      "Ġpict": 1943,
      "Ġden": 1944,
      "asure": 1945,
      "Ġnarr": 1946,
      "Ġheld": 1947,
      "Ġeither": 1948,
      "acious": 1949,
      "ĠSA": 1950,
      "Ġweather": 1951,
      "Ġang": 1952,
      "Ġunkn": 1953,
      "orth": 1954,
      "Ġexceed": 1955,
      "Ġplaced": 1956,
      "Ġothers": 1957,
      "ives": 1958,
      "lessly": 1959,
      "Ġaround": 1960,
      "Ġcond": 1961,
      "Ġforehead": 1962,
      "ney": 1963,
      "itudes": 1964,
      "Ġready": 1965,
      "Ġfamous": 1966,
      "Ġgentlemen": 1967,
      "ĠGreenland": 1968,
      "He": 1969,
      "IL": 1970,
      "gy": 1971,
      "ience": 1972,
      "light": 1973,
      "mn": 1974,
      "sm": 1975,
      "Ġid": 1976,
      "Ġborn": 1977,
      "lest": 1978,
      "Ġmal": 1979,
      "Ġpat": 1980,
      "Ġlim": 1981,
      "Ġevent": 1982,
      "Ġsepar": 1983,
      "acific": 1984,
      "Ġshow": 1985,
      "Ġleaving": 1986,
      "ĠWell": 1987,
      "Ġvain": 1988,
      "ĠCan": 1989,
      "ĠPacific": 1990,
      "elled": 1991,
      "Ġjet": 1992,
      "posed": 1993,
      "icked": 1994,
      "Ġcoffin": 1995,
      "Ġcrow": 1996,
      "Ġsails": 1997,
      "Ġlove": 1998,
      "Ġremain": 1999,
      "Ġbelie": 2000,
      "Ġcapt": 2001,
      "Ġgiven": 2002,
      "Ġbulwarks": 2003,
      "while": 2004,
      "Ġflukes": 2005,
      "Ġquestion": 2006,
      "Ġeasy": 2007,
      "Ġunknown": 2008,
      "And": 2009,
      "ales": 2010,
      "bod": 2011,
      "cing": 2012,
      "ired": 2013,
      "lic": 2014,
      "long": 2015,
      "lord": 2016,
      "rom": 2017,
      "ught": 2018,
      "Ġ2": 2019,
      "Ġfit": 2020,
      "Ġhull": 2021,
      "Ġdream": 2022,
      "ashing": 2023,
      "ĠSome": 2024,
      "que": 2025,
      "anded": 2026,
      "Ġlevel": 2027,
      "Ġlearn": 2028,
      "ager": 2029,
      "ement": 2030,
      "Ġuns": 2031,
      "aked": 2032,
      "ĠSteel": 2033,
      "Ġago": 2034,
      "ĠLook": 2035,
      "Ġquiet": 2036,
      "Ġfirm": 2037,
      "ize": 2038,
      "Ġforecastle": 2039,
      "ready": 2040,
      "Ġheavy": 2041,
      "Ġlegs": 2042,
      "Ġburst": 2043,
      "Ġmiddle": 2044,
      "Ġcutting": 2045,
      "ounter": 2046,
      "Ġsuppose": 2047,
      "Ġprevious": 2048,
      ",âĢĻ": 2049,
      "mp": 2050,
      "ms": 2051,
      "of": 2052,
      "uct": 2053,
      "Ġice": 2054,
      "inning": 2055,
      "Ġsch": 2056,
      "Ġfool": 2057,
      "Ġhint": 2058,
      "Ġpipe": 2059,
      "Ġlur": 2060,
      "Ġlau": 2061,
      "Ġnose": 2062,
      "Ġhair": 2063,
      "sequ": 2064,
      "irst": 2065,
      "enty": 2066,
      "ored": 2067,
      "ores": 2068,
      "Ġshr": 2069,
      "Ġshot": 2070,
      "Ġsuspe": 2071,
      "ipped": 2072,
      "Ġdeg": 2073,
      "Ġdem": 2074,
      "ĠWhere": 2075,
      "ulous": 2076,
      "Ġconst": 2077,
      "Ġconce": 2078,
      "ounded": 2079,
      "Ġunw": 2080,
      "Ġexper": 2081,
      "Ġexact": 2082,
      "Ġroy": 2083,
      "Ġthoughts": 2084,
      "Ġturns": 2085,
      "ressed": 2086,
      "Ġarms": 2087,
      "Ġnature": 2088,
      "boat": 2089,
      "Ġbulk": 2090,
      "Ġfresh": 2091,
      "aggoo": 2092,
      "Ġhammock": 2093,
      "Ġoccasion": 2094,
      "ĠSteelkilt": 2095,
      "?âĢĻ": 2096,
      "Fish": 2097,
      "There": 2098,
      "aut": 2099,
      "bs": 2100,
      "ued": 2101,
      "Ġsink": 2102,
      "Ġwon": 2103,
      "reck": 2104,
      "Ġbu": 2105,
      "Ġmention": 2106,
      "Ġfall": 2107,
      "arily": 2108,
      "Ġpil": 2109,
      "Ġpol": 2110,
      "utch": 2111,
      "Ġhang": 2112,
      "Ġbear": 2113,
      "Ġgall": 2114,
      "Ġeight": 2115,
      "Ġashore": 2116,
      "ĠSuch": 2117,
      "Ġsuff": 2118,
      "Ġmeet": 2119,
      "Ġunf": 2120,
      "ĠNever": 2121,
      "Ġkilled": 2122,
      "Ġshipm": 2123,
      "Ġabs": 2124,
      "Ġblubber": 2125,
      "ĠDon": 2126,
      "ĠDaggoo": 2127,
      "Ġtruth": 2128,
      "Ġsailing": 2129,
      "ails": 2130,
      "izing": 2131,
      "Ġremained": 2132,
      "Ġdistinct": 2133,
      "Ġinvol": 2134,
      "rench": 2135,
      "Ġnearly": 2136,
      "Ġcreatures": 2137,
      "Ġsweet": 2138,
      "Ġboys": 2139,
      "Ġmerc": 2140,
      "Ġcompletely": 2141,
      "Ġrigging": 2142,
      "Ġhonor": 2143,
      "ĠAmerican": 2144,
      "Ġfifty": 2145,
      "Ġcompany": 2146,
      "Ġidea": 2147,
      "Ġskeleton": 2148,
      "ĠSAIL": 2149,
      "ĠSAILOR": 2150,
      "aim": 2151,
      "lass": 2152,
      "oom": 2153,
      "phant": 2154,
      "itary": 2155,
      "Ġfa": 2156,
      "Ġhig": 2157,
      "Ġlaw": 2158,
      "Ġlines": 2159,
      "omp": 2160,
      "Ġthird": 2161,
      "irt": 2162,
      "ĠAf": 2163,
      "ĠAye": 2164,
      "Ġant": 2165,
      "Ġanim": 2166,
      "Ġanch": 2167,
      "ips": 2168,
      "Ġupper": 2169,
      "apped": 2170,
      "Ġvio": 2171,
      "ivid": 2172,
      "Ġcold": 2173,
      "Ġscr": 2174,
      "Ġprom": 2175,
      "Ġlock": 2176,
      "ĠWho": 2177,
      "ĠYes": 2178,
      "ocks": 2179,
      "Ġsteel": 2180,
      "Ġpassage": 2181,
      "Ġskin": 2182,
      "ugg": 2183,
      "Ġintervals": 2184,
      "Ġrapid": 2185,
      "!âĢĻ": 2186,
      ":âĢĶ": 2187,
      "gest": 2188,
      "lt": 2189,
      "line": 2190,
      "no": 2191,
      "row": 2192,
      "ral": 2193,
      "Ġtre": 2194,
      "Ġbound": 2195,
      "inger": 2196,
      "Ġmood": 2197,
      "edd": 2198,
      "Ġhung": 2199,
      "Ġdam": 2200,
      "Ġnone": 2201,
      "omm": 2202,
      "uttle": 2203,
      "Ġear": 2204,
      "Ġetern": 2205,
      "Ġhist": 2206,
      "Ġstro": 2207,
      "idden": 2208,
      "acet": 2209,
      "Ġbold": 2210,
      "Ġlie": 2211,
      "umed": 2212,
      "Ġneg": 2213,
      "Ġexcept": 2214,
      "tained": 2215,
      "Ġaft": 2216,
      "there": 2217,
      "Ġsubstance": 2218,
      "Ġskull": 2219,
      "Ġimport": 2220,
      "Ġholding": 2221,
      "Ġhardly": 2222,
      "Ġdarkness": 2223,
      "Ġdrawing": 2224,
      "Ġvisible": 2225,
      "Ġspecies": 2226,
      "Ġrolling": 2227,
      "Ġacross": 2228,
      "Ġplanks": 2229,
      "Ġroyal": 2230,
      "But": 2231,
      "It": 2232,
      "aled": 2233,
      "eper": 2234,
      "ny": 2235,
      "uly": 2236,
      "Ġsad": 2237,
      "Ġsent": 2238,
      "Ġod": 2239,
      "Ġoh": 2240,
      "Ġmet": 2241,
      "Ġmil": 2242,
      "Ġmiles": 2243,
      "edall": 2244,
      "Ġpain": 2245,
      "Ġdie": 2246,
      "att": 2247,
      "ator": 2248,
      "atural": 2249,
      "Ġheed": 2250,
      "idel": 2251,
      "aching": 2252,
      "ented": 2253,
      "ayed": 2254,
      "Ġreally": 2255,
      "ĠBesides": 2256,
      "Ġdecl": 2257,
      "appe": 2258,
      "ume": 2259,
      "unk": 2260,
      "Ġexcl": 2261,
      "ths": 2262,
      "Ġtwenty": 2263,
      "ĠWhales": 2264,
      "Ġperil": 2265,
      "Ġgrow": 2266,
      "Ġscar": 2267,
      "Ġlog": 2268,
      "ians": 2269,
      "ĠWhy": 2270,
      "Ġinstances": 2271,
      "Ġcarried": 2272,
      "Ġhuge": 2273,
      "Ġshark": 2274,
      "Ġgenerally": 2275,
      "Ġcannib": 2276,
      "Ġtouch": 2277,
      "Ġpossible": 2278,
      "Ġuncom": 2279,
      "Ġprofound": 2280,
      "Ġextrem": 2281,
      "Ġreturn": 2282,
      "Ġpleas": 2283,
      "Ġnumber": 2284,
      ".)": 2285,
      "No": 2286,
      "day": 2287,
      "ially": 2288,
      "opp": 2289,
      "zz": 2290,
      "Ġ3": 2291,
      "Ġ5": 2292,
      "Ġve": 2293,
      "Ġtor": 2294,
      "Ġwal": 2295,
      "Ġfig": 2296,
      "Ġlate": 2297,
      "Ġthunder": 2298,
      "Ġheight": 2299,
      "stances": 2300,
      "Ġeager": 2301,
      "ics": 2302,
      "set": 2303,
      "sey": 2304,
      "irty": 2305,
      "acy": 2306,
      "Ġwhis": 2307,
      "Ġrising": 2308,
      "Ġrepe": 2309,
      "ioned": 2310,
      "Ġann": 2311,
      "Ġancient": 2312,
      "ĠBl": 2313,
      "ĠHo": 2314,
      "Ġinterest": 2315,
      "Ġmyst": 2316,
      "udd": 2317,
      "Ġhoisted": 2318,
      "Ġbright": 2319,
      "Ġperi": 2320,
      "Ġenorm": 2321,
      "ording": 2322,
      "Ġharpoons": 2323,
      "ected": 2324,
      "Ġdesce": 2325,
      "Ġstands": 2326,
      "ogether": 2327,
      "Ġemb": 2328,
      "Ġstrangely": 2329,
      "Ġwrink": 2330,
      "Ġchest": 2331,
      "Ġfinal": 2332,
      "Ġpossibly": 2333,
      "Ġhammer": 2334,
      "Ġjaws": 2335,
      "Ġcorp": 2336,
      "Ġentirely": 2337,
      "Ġsmoke": 2338,
      "Ġswimming": 2339,
      "Ġtossed": 2340,
      "Ġleeward": 2341,
      "ency": 2342,
      "Ġmariners": 2343,
      "Ġflying": 2344,
      "Ġaltogether": 2345,
      "smith": 2346,
      "Ġenormous": 2347,
      "..": 2348,
      "aff": 2349,
      "ds": 2350,
      "gin": 2351,
      "lers": 2352,
      "look": 2353,
      "oss": 2354,
      "rant": 2355,
      "ses": 2356,
      "tty": 2357,
      "wor": 2358,
      "Ġ4": 2359,
      "Ġter": 2360,
      "Ġtall": 2361,
      "Ġtack": 2362,
      "inc": 2363,
      "inting": 2364,
      "Ġbree": 2365,
      "ony": 2366,
      "Ġhither": 2367,
      "orous": 2368,
      "Ġpen": 2369,
      "Ġpast": 2370,
      "Ġpaus": 2371,
      "Ġdut": 2372,
      "Ġlamp": 2373,
      "Ġbehold": 2374,
      "Ġgale": 2375,
      "ote": 2376,
      "vers": 2377,
      "Ġforg": 2378,
      "Ġshout": 2379,
      "Ġfront": 2380,
      "Ġsucc": 2381,
      "ipt": 2382,
      "Ġvol": 2383,
      "Ġspot": 2384,
      "Ġalready": 2385,
      "ession": 2386,
      "Ġunless": 2387,
      "ushed": 2388,
      "ĠFedall": 2389,
      "Ġjoy": 2390,
      "Ġdog": 2391,
      "Ġpretty": 2392,
      "Ġtrou": 2393,
      "Ġknows": 2394,
      "Ġswall": 2395,
      "ells": 2396,
      "ires": 2397,
      "Ġthrust": 2398,
      "Ġglance": 2399,
      "Ġglass": 2400,
      "anced": 2401,
      "ĠWhile": 2402,
      "Ġhearts": 2403,
      "Ġbecome": 2404,
      "Ġhump": 2405,
      "hens": 2406,
      "Ġwords": 2407,
      "Ġconsidering": 2408,
      "Ġfishermen": 2409,
      "Ġwarm": 2410,
      "Ġstrike": 2411,
      "deck": 2412,
      "Ġbreath": 2413,
      "Ġastern": 2414,
      "Ġgunw": 2415,
      "ĠParsee": 2416,
      "ĠFedallah": 2417,
      "af": 2418,
      "ailed": 2419,
      "bone": 2420,
      "fast": 2421,
      "hip": 2422,
      "me": 2423,
      "yed": 2424,
      "Ġsides": 2425,
      "Ġbird": 2426,
      "Ġmaster": 2427,
      "iting": 2428,
      "ences": 2429,
      "ater": 2430,
      "omin": 2431,
      "stone": 2432,
      "Ġgre": 2433,
      "ĠII": 2434,
      "ety": 2435,
      "Ġrev": 2436,
      "ility": 2437,
      "ĠPl": 2438,
      "Ġsomewhat": 2439,
      "ĠFrench": 2440,
      "ustom": 2441,
      "acked": 2442,
      "Ġoverboard": 2443,
      "Ġwholly": 2444,
      "Ġseeing": 2445,
      "Ġscene": 2446,
      "Ġcompass": 2447,
      "Ġsideways": 2448,
      "obe": 2449,
      "Ġsubject": 2450,
      "Ġalongside": 2451,
      "medi": 2452,
      "Ġcertainly": 2453,
      "Ġeyeing": 2454,
      "Ġfeeling": 2455,
      "Ġwoe": 2456,
      "Ġsweep": 2457,
      "Ġsimilar": 2458,
      "Ġcountry": 2459,
      "Ġmotion": 2460,
      "Ġspirit": 2461,
      "Ġleaning": 2462,
      "Ġwhiteness": 2463,
      "Ġlearned": 2464,
      "In": 2465,
      "OO": 2466,
      "lu": 2467,
      "oe": 2468,
      "ph": 2469,
      "ues": 2470,
      "Ġtub": 2471,
      "hel": 2472,
      "Ġahead": 2473,
      "Ġauth": 2474,
      "inn": 2475,
      "rest": 2476,
      "haw": 2477,
      "erted": 2478,
      "Ġma": 2479,
      "Ġfight": 2480,
      "Ġfancy": 2481,
      "Ġce": 2482,
      "orpo": 2483,
      "Ġdread": 2484,
      "ature": 2485,
      "Ġlord": 2486,
      "Ġheat": 2487,
      "Ġears": 2488,
      "Ġstarted": 2489,
      "Ġsevent": 2490,
      "acc": 2491,
      "Ġring": 2492,
      "Ġrose": 2493,
      "Ġrese": 2494,
      "Ġfro": 2495,
      "asted": 2496,
      "Ġspread": 2497,
      "Ġmyster": 2498,
      "ush": 2499,
      "Ġking": 2500,
      "ĠFrom": 2501,
      "isting": 2502,
      "Ġyear": 2503,
      "posing": 2504,
      "Ġotherwise": 2505,
      "iving": 2506,
      "Ġpointed": 2507,
      "Ġprob": 2508,
      "ĠOne": 2509,
      "arer": 2510,
      "arent": 2511,
      "Ġyourself": 2512,
      "arboard": 2513,
      "ĠThus": 2514,
      "ignity": 2515,
      "Ġkeel": 2516,
      "Ġlandlord": 2517,
      "Ġ18": 2518,
      "Ġbodily": 2519,
      "Ġgetting": 2520,
      "Ġdraw": 2521,
      "Ġconsiderable": 2522,
      "Ġspring": 2523,
      "Ġgiving": 2524,
      "Ġexpress": 2525,
      "Ġcircumstance": 2526,
      "Ġcircumstances": 2527,
      "Ġwooden": 2528,
      "ivers": 2529,
      "Ġelephant": 2530,
      "Ġfollowed": 2531,
      "Ġsupper": 2532,
      "Ġutter": 2533,
      "Ġreceived": 2534,
      "Ġprecisely": 2535,
      "Ġdropped": 2536,
      "Ġignor": 2537,
      "Ġsuspended": 2538,
      "Ġdegree": 2539,
      "Ġpilot": 2540,
      "ĠNevertheless": 2541,
      "Ġperiod": 2542,
      "bb": 2543,
      "host": 2544,
      "ring": 2545,
      "sman": 2546,
      "vo": 2547,
      "Ġtap": 2548,
      "Ġterm": 2549,
      "Ġtakes": 2550,
      "inced": 2551,
      "Ġsil": 2552,
      "rehens": 2553,
      "erous": 2554,
      "Ġbread": 2555,
      "Ġfles": 2556,
      "Ġcow": 2557,
      "Ġcorn": 2558,
      "ories": 2559,
      "Ġthirty": 2560,
      "Ġhence": 2561,
      "utes": 2562,
      "stit": 2563,
      "Ġbearing": 2564,
      "Ġghost": 2565,
      "ices": 2566,
      "ldom": 2567,
      "Ġstop": 2568,
      "Ġyes": 2569,
      "Ġyards": 2570,
      "Ġself": 2571,
      "Ġseated": 2572,
      "acted": 2573,
      "Ġran": 2574,
      "Ġreal": 2575,
      "ĠSee": 2576,
      "amb": 2577,
      "ipping": 2578,
      "Ġdeli": 2579,
      "Ġleak": 2580,
      "aps": 2581,
      "Ġvap": 2582,
      "ĠCo": 2583,
      "Ġmeasure": 2584,
      "agan": 2585,
      "rie": 2586,
      "Ġnecess": 2587,
      "Ġexc": 2588,
      "Ġblow": 2589,
      "ĠDutch": 2590,
      "ĠLike": 2591,
      "Ġarri": 2592,
      "ĠOf": 2593,
      "Ġperce": 2594,
      "Ġlooks": 2595,
      "ĠThou": 2596,
      "Ġfoam": 2597,
      "erence": 2598,
      "Ġcases": 2599,
      "Ġlightning": 2600,
      "ĠĠĠĠĠ": 2601,
      "Ġthinking": 2602,
      "Ġsecret": 2603,
      "Ġempt": 2604,
      "Ġmasts": 2605,
      "Ġhorse": 2606,
      "Ġcheer": 2607,
      "Ġadded": 2608,
      "Ġpitch": 2609,
      "Ġinterval": 2610,
      "Ġcruising": 2611,
      "Ġpriv": 2612,
      "Ġsteady": 2613,
      "Ġbattle": 2614,
      "Ġbelieve": 2615,
      "Ġduty": 2616,
      "fish": 2617,
      "spect": 2618,
      "yard": 2619,
      "yond": 2620,
      "Ġtong": 2621,
      "ining": 2622,
      "Ġoar": 2623,
      "Ġwreck": 2624,
      "isc": 2625,
      "ison": 2626,
      "itable": 2627,
      "Ġinclud": 2628,
      "Ġhot": 2629,
      "Ġhinted": 2630,
      "Ġtown": 2631,
      "Ġpost": 2632,
      "anqu": 2633,
      "Ġhast": 2634,
      "stem": 2635,
      "Ġbeat": 2636,
      "Ġgro": 2637,
      "Ġgod": 2638,
      "Ġstuff": 2639,
      "Ġyo": 2640,
      "Ġseldom": 2641,
      "aded": 2642,
      "Ġforty": 2643,
      "key": 2644,
      "Ġatte": 2645,
      "ills": 2646,
      "asting": 2647,
      "Ġdev": 2648,
      "Ġvig": 2649,
      "anted": 2650,
      "ction": 2651,
      "outs": 2652,
      "ĠFirst": 2653,
      "unning": 2654,
      "Ġblows": 2655,
      "ĠDo": 2656,
      "ĠLake": 2657,
      "Ġpop": 2658,
      "Ġprov": 2659,
      "ĠGr": 2660,
      "Ġswam": 2661,
      "Ġsword": 2662,
      "Ġcoat": 2663,
      "Ġthrown": 2664,
      "Ġperils": 2665,
      "Ġafterwards": 2666,
      "ĠRad": 2667,
      "Ġpract": 2668,
      "Ġloft": 2669,
      "Ġremem": 2670,
      "Ġremains": 2671,
      "ogn": 2672,
      "Ġbecame": 2673,
      "Ġthyself": 2674,
      "hole": 2675,
      "Ġhorr": 2676,
      "Ġfinally": 2677,
      "Ġmidnight": 2678,
      "Ġfloating": 2679,
      "Ġdoublo": 2680,
      "Ġdrop": 2681,
      "Ġfrequ": 2682,
      "Ġfollowing": 2683,
      "Ġgentleman": 2684,
      "Ġorders": 2685,
      "Ġpursuit": 2686,
      "Ġprodig": 2687,
      "Ġdifferent": 2688,
      "Ġhunters": 2689,
      "Ġescape": 2690,
      "body": 2691,
      "Ġschool": 2692,
      "Ġlaugh": 2693,
      "Ġexactly": 2694,
      "Ġviolent": 2695,
      "Ġrepeated": 2696,
      "go": 2697,
      "ges": 2698,
      "not": 2699,
      "pit": 2700,
      "whale": 2701,
      "Ã¦": 2702,
      "Ġ6": 2703,
      "Ġ7": 2704,
      "Ġ8": 2705,
      "Ġest": 2706,
      "Ġtum": 2707,
      "Ġtra": 2708,
      "held": 2709,
      "inter": 2710,
      "inity": 2711,
      "Ġbad": 2712,
      "Ġbig": 2713,
      "Ġburn": 2714,
      "ism": 2715,
      "ley": 2716,
      "Ġfain": 2717,
      "Ġfun": 2718,
      "Ġcand": 2719,
      "Ġinn": 2720,
      "Ġhidden": 2721,
      "ari": 2722,
      "Ġpun": 2723,
      "Ġpie": 2724,
      "Ġduring": 2725,
      "Ġlung": 2726,
      "Ġlances": 2727,
      "Ġgir": 2728,
      "Ġgods": 2729,
      "iment": 2730,
      "Ġstate": 2731,
      "Ġyield": 2732,
      "Ġaside": 2733,
      "Ġrear": 2734,
      "Ġshore": 2735,
      "amed": 2736,
      "Ġfright": 2737,
      "cks": 2738,
      "Ġmem": 2739,
      "antime": 2740,
      "Ġalive": 2741,
      "umps": 2742,
      "Ġcomb": 2743,
      "Ġcomfort": 2744,
      "aker": 2745,
      "Ġblank": 2746,
      "Ġworship": 2747,
      "icking": 2748,
      "Ġhollow": 2749,
      "Ġperf": 2750,
      "fulness": 2751,
      "Ġdism": 2752,
      "Ġdisappe": 2753,
      "Ġnevertheless": 2754,
      "Ġwatery": 2755,
      "Ġinstead": 2756,
      "Ġresol": 2757,
      "Ġpassing": 2758,
      "Ġ10": 2759,
      "ploy": 2760,
      "Ġspeaking": 2761,
      "Ġcircle": 2762,
      "Ġblacksmith": 2763,
      "Ġappro": 2764,
      "Ġstrength": 2765,
      "Ġerect": 2766,
      "Ġaffair": 2767,
      "Ġcommanded": 2768,
      "Ġcharac": 2769,
      "Ġvessels": 2770,
      "Ġsquall": 2771,
      "Ġcentre": 2772,
      "Ġflew": 2773,
      "Ġchapter": 2774,
      "Ġanswer": 2775,
      "Ġregarded": 2776,
      "ĠUpon": 2777,
      "Ġshroud": 2778,
      "Ġhigher": 2779,
      "Ġnegro": 2780,
      "Ġauthor": 2781,
      "Ġflesh": 2782,
      "ĠLakeman": 2783,
      "Ho": 2784,
      "cious": 2785,
      "dra": 2786,
      "kin": 2787,
      "Ġ9": 2788,
      "Ġtalk": 2789,
      "Ġoper": 2790,
      "Ġwife": 2791,
      "haling": 2792,
      "erman": 2793,
      "Ġbra": 2794,
      "isp": 2795,
      "Ġmother": 2796,
      "itting": 2797,
      "Ġfilled": 2798,
      "Ġcord": 2799,
      "Ġcause": 2800,
      "Ġhook": 2801,
      "Ġphant": 2802,
      "Ġdrew": 2803,
      "Ġdashed": 2804,
      "Ġloose": 2805,
      "Ġbeyond": 2806,
      "Ġgain": 2807,
      "Ġgame": 2808,
      "Ġearn": 2809,
      "Ġstove": 2810,
      "Ġrid": 2811,
      "Ġrequ": 2812,
      "ĠSc": 2813,
      "ĠSouth": 2814,
      "cel": 2815,
      "oof": 2816,
      "âĢĿâĢĶ": 2817,
      "rod": 2818,
      "cket": 2819,
      "aped": 2820,
      "ulated": 2821,
      "ague": 2822,
      "Ġlives": 2823,
      "empt": 2824,
      "Ġunacc": 2825,
      "Ġintense": 2826,
      "Ġsomewhere": 2827,
      "Ġouter": 2828,
      "Ġexamp": 2829,
      "oney": 2830,
      "ivil": 2831,
      "Ġpos": 2832,
      "Ġhole": 2833,
      "Ġimper": 2834,
      "Ġprow": 2835,
      "Ġcontri": 2836,
      "Ġkeen": 2837,
      "Ġwindward": 2838,
      "Ġwindlass": 2839,
      "Ġunderstand": 2840,
      "Ġ11": 2841,
      "Ġ12": 2842,
      "Ġsurpr": 2843,
      "Ġemploy": 2844,
      "ĠNantucketer": 2845,
      "Ġdeadly": 2846,
      "Ġsouls": 2847,
      "Ġstret": 2848,
      "Ġdrawn": 2849,
      "Ġconcern": 2850,
      "Ġsignific": 2851,
      "Ġstriking": 2852,
      "Ġcolour": 2853,
      "Ġwonderful": 2854,
      "Ġcentur": 2855,
      "Ġpulling": 2856,
      "cript": 2857,
      "Ġgazing": 2858,
      "Ġanswered": 2859,
      "Ġdescried": 2860,
      "Ġfiery": 2861,
      "Ġsolemn": 2862,
      "Ġshipmates": 2863,
      "Ġfaith": 2864,
      "Ġuncommon": 2865,
      "Ġterrible": 2866,
      "Ġseventy": 2867,
      "Ġcharacter": 2868,
      "AN": 2869,
      "Well": 2870,
      "awn": 2871,
      "fl": 2872,
      "lim": 2873,
      "sy": 2874,
      "vast": 2875,
      "Ġtrem": 2876,
      "inner": 2877,
      "Ġbri": 2878,
      "Ġmed": 2879,
      "itten": 2880,
      "Ġfather": 2881,
      "Ġcong": 2882,
      "oned": 2883,
      "lling": 2884,
      "ese": 2885,
      "atic": 2886,
      "Ġluck": 2887,
      "Ġlaid": 2888,
      "owder": 2889,
      "Ġhailed": 2890,
      "Ġbeheld": 2891,
      "alth": 2892,
      "ading": 2893,
      "Ġformer": 2894,
      "Ġformed": 2895,
      "ĠSir": 2896,
      "Ġweight": 2897,
      "ĠCha": 2898,
      "Ġspare": 2899,
      "emed": 2900,
      "usion": 2901,
      "pered": 2902,
      "Ġnoise": 2903,
      "taining": 2904,
      "Ġage": 2905,
      "ishing": 2906,
      "iveness": 2907,
      "Ġstrain": 2908,
      "Ġcop": 2909,
      "Ġimmedi": 2910,
      "Ġcrown": 2911,
      "Ġgloom": 2912,
      "Ġdidn": 2913,
      "Ġcompar": 2914,
      "Ġadm": 2915,
      "ĠJap": 2916,
      "ecause": 2917,
      "Ġindivid": 2918,
      "headed": 2919,
      "Ġdecks": 2920,
      "teen": 2921,
      "Ġdrown": 2922,
      "Ġapart": 2923,
      "Ġjolly": 2924,
      "rupt": 2925,
      "ĠEngland": 2926,
      "Ġadvance": 2927,
      "Ġterror": 2928,
      "Ġminutes": 2929,
      "Ġmurd": 2930,
      "Ġquickly": 2931,
      "000": 2932,
      "ĠSea": 2933,
      "Ġappear": 2934,
      "Ġmagnitude": 2935,
      "Ġsitting": 2936,
      "Ġoriginal": 2937,
      "Ġhorizont": 2938,
      "Ġeffect": 2939,
      "ompan": 2940,
      "Ġanchor": 2941,
      "Ġbreeze": 2942,
      "Ġgrey": 2943,
      "OOK": 2944,
      "hawk": 2945,
      "Ġempty": 2946,
      "ĠRadney": 2947,
      "Ġlofty": 2948,
      "Queequeg": 2949,
      "bor": 2950,
      "cha": 2951,
      "cher": 2952,
      "lantic": 2953,
      "ron": 2954,
      "sail": 2955,
      "tis": 2956,
      "tled": 2957,
      "top": 2958,
      "zy": 2959,
      "Ġtree": 2960,
      "Ġtorn": 2961,
      "Ġowing": 2962,
      "Ġwid": 2963,
      "Ġbag": 2964,
      "Ġbase": 2965,
      "Ġbrave": 2966,
      "Ġbesides": 2967,
      "let": 2968,
      "Ġmove": 2969,
      "oured": 2970,
      "Ġfill": 2971,
      "Ġcustom": 2972,
      "Ġhorn": 2973,
      "Ġpay": 2974,
      "Ġder": 2975,
      "Ġdat": 2976,
      "Ġdied": 2977,
      "Ġdanger": 2978,
      "Ġdignity": 2979,
      "atch": 2980,
      "Ġlan": 2981,
      "Ġlone": 2982,
      "Ġbell": 2983,
      "Ġgig": 2984,
      "Ġgrave": 2985,
      "otion": 2986,
      "Ġones": 2987,
      "alled": 2988,
      "ĠSha": 2989,
      "Ġsul": 2990,
      "ĠBr": 2991,
      "ĠWhe": 2992,
      "Ġvit": 2993,
      "Ġvill": 2994,
      "bles": 2995,
      "Ġlies": 2996,
      "riel": 2997,
      "ĠPo": 2998,
      "ĠStand": 2999,
      "Ġjud": 3000,
      "Ġyellow": 3001,
      "acks": 3002,
      "Ġaboard": 3003,
      "Ġprep": 3004,
      "poss": 3005,
      "Ġworse": 3006,
      "Ġswung": 3007,
      "Ġflag": 3008,
      "Ġtwel": 3009,
      "lessness": 3010,
      "ude": 3011,
      "abriel": 3012,
      "Ġgrass": 3013,
      "Ġimmen": 3014,
      "Ġscuttle": 3015,
      "Ġclot": 3016,
      "Ġeverything": 3017,
      "Ġremark": 3018,
      "erer": 3019,
      "ĠYo": 3020,
      "Ġdrink": 3021,
      "Ġaccording": 3022,
      "Ġdistant": 3023,
      "Ġlowered": 3024,
      "Ġinches": 3025,
      "Ġattached": 3026,
      "Ġsleeping": 3027,
      "Ġfloor": 3028,
      "Ġoccur": 3029,
      "Ġsuperior": 3030,
      "Ġdirectly": 3031,
      "Ġdelic": 3032,
      "Ġneeds": 3033,
      "Ġmurder": 3034,
      "Ġfatal": 3035,
      "Ġraised": 3036,
      "Ġslightest": 3037,
      "Ġevinced": 3038,
      "Ġinvested": 3039,
      "Ġbillows": 3040,
      "ĠChristian": 3041,
      "Ġtempor": 3042,
      "Ġseparate": 3043,
      "Ġhanging": 3044,
      "Ġmerchant": 3045,
      "aimed": 3046,
      "irtue": 3047,
      "Ġscarce": 3048,
      "Ġcannibal": 3049,
      "Ġsuccess": 3050,
      "Ġgunwale": 3051,
      "Ġrevol": 3052,
      "Ġearnest": 3053,
      "ĠJapan": 3054,
      "Ġgigantic": 3055,
      "bur": 3056,
      "ended": 3057,
      "iac": 3058,
      "ule": 3059,
      "uced": 3060,
      "yp": 3061,
      "yr": 3062,
      "hered": 3063,
      "inite": 3064,
      "Ġwound": 3065,
      "Ġbless": 3066,
      "Ġfow": 3067,
      "Ġfail": 3068,
      "Ġcher": 3069,
      "Ġcivil": 3070,
      "Ġhide": 3071,
      "Ġdom": 3072,
      "Ġloud": 3073,
      "Ġthin": 3074,
      "Ġbeef": 3075,
      "lded": 3076,
      "Ġstud": 3077,
      "eter": 3078,
      "Ġrum": 3079,
      "Ġreck": 3080,
      "Ġreached": 3081,
      "âĢĶâĢĿ": 3082,
      "Ġshock": 3083,
      "ams": 3084,
      "ĠBOOK": 3085,
      "ipp": 3086,
      "Ġupwards": 3087,
      "ands": 3088,
      "Ġdeeper": 3089,
      "Ġleaves": 3090,
      "Ġsake": 3091,
      "estic": 3092,
      "ledge": 3093,
      "ĠHorn": 3094,
      "Ġune": 3095,
      "Ġcomr": 3096,
      "Ġneck": 3097,
      "Ġexpl": 3098,
      "Ġnoon": 3099,
      "rair": 3100,
      "Ġfeat": 3101,
      "this": 3102,
      "Ġplaces": 3103,
      "Ġpole": 3104,
      "Ġponder": 3105,
      "Ġtruly": 3106,
      "ieved": 3107,
      "ĠGabriel": 3108,
      "Ġarg": 3109,
      "Ġarch": 3110,
      "Ġperpend": 3111,
      "Ġcrit": 3112,
      "Ġcloud": 3113,
      "Ġways": 3114,
      "Ġglad": 3115,
      "Ġglobe": 3116,
      "Ġpray": 3117,
      "Ġindiffere": 3118,
      "Ġcontent": 3119,
      "ibr": 3120,
      "shma": 3121,
      "Ġsorts": 3122,
      "Ġwhalers": 3123,
      "Ġwinds": 3124,
      "Ġoppos": 3125,
      "Ġcasks": 3126,
      "Ġdistr": 3127,
      "Ġspeed": 3128,
      "Ġmonst": 3129,
      "Ġbeginning": 3130,
      "Ġpeace": 3131,
      "Ġpresented": 3132,
      "Ġlargest": 3133,
      "ĠAtlantic": 3134,
      "Ġsuperstit": 3135,
      "Ġprecious": 3136,
      "ĠUn": 3137,
      "Ġsmoking": 3138,
      "Ġsolitary": 3139,
      "Ġterrors": 3140,
      "Ġsystem": 3141,
      "Ġordinary": 3142,
      "ĠMeantime": 3143,
      "Ġhunted": 3144,
      "Ġswiftly": 3145,
      "Ġofficers": 3146,
      "Ġmodern": 3147,
      "Ġribs": 3148,
      "Ġvicinity": 3149,
      "Ġconcluded": 3150,
      "Ġjacket": 3151,
      "Ġrapidly": 3152,
      "aceti": 3153,
      "Ġimportant": 3154,
      "Ġfigure": 3155,
      "works": 3156,
      "incip": 3157,
      "orpoise": 3158,
      "Ġunaccount": 3159,
      "Ġtwelve": 3160,
      "Ġperpendicular": 3161,
      "shmael": 3162,
      "Look": 3163,
      "Why": 3164,
      "bat": 3165,
      "eled": 3166,
      "ford": 3167,
      "fact": 3168,
      "iam": 3169,
      "my": 3170,
      "natural": 3171,
      "sha": 3172,
      "uit": 3173,
      "you": 3174,
      "Ġed": 3175,
      "Ġson": 3176,
      "Ġsens": 3177,
      "Ġwit": 3178,
      "rels": 3179,
      "erick": 3180,
      "erved": 3181,
      "Ġbes": 3182,
      "Ġball": 3183,
      "Ġbucket": 3184,
      "isible": 3185,
      "Ġfet": 3186,
      "Ġfash": 3187,
      "Ġcoo": 3188,
      "Ġcool": 3189,
      "edford": 3190,
      "ench": 3191,
      "enge": 3192,
      "Ġincl": 3193,
      "Ġhost": 3194,
      "orse": 3195,
      "orge": 3196,
      "orrow": 3197,
      "Ġpan": 3198,
      "Ġpot": 3199,
      "Ġpap": 3200,
      "Ġpick": 3201,
      "Ġpale": 3202,
      "Ġlist": 3203,
      "omen": 3204,
      "ĠIshmael": 3205,
      "seen": 3206,
      "oted": 3207,
      "Ġseat": 3208,
      "Ġseized": 3209,
      "vering": 3210,
      "irgin": 3211,
      "etr": 3212,
      "Ġwhir": 3213,
      "Ġrow": 3214,
      "Ġrate": 3215,
      "Ġrare": 3216,
      "Ġrise": 3217,
      "ĠShe": 3218,
      "ĠBedford": 3219,
      "Ġleave": 3220,
      "app": 3221,
      "apping": 3222,
      "Ġvac": 3223,
      "ĠCome": 3224,
      "ĠThese": 3225,
      "Ġsaf": 3226,
      "Ġconv": 3227,
      "Ġunm": 3228,
      "Ġunre": 3229,
      "Ġunus": 3230,
      "orthy": 3231,
      "Ġdoom": 3232,
      "Ġproject": 3233,
      "ĠGu": 3234,
      "ĠGerman": 3235,
      "Ġknock": 3236,
      "Ġflood": 3237,
      "ellig": 3238,
      "ares": 3239,
      "ĠQue": 3240,
      "Ġglim": 3241,
      "Ġglory": 3242,
      "Ġchur": 3243,
      "Ġevening": 3244,
      "Ġinstance": 3245,
      "Ġimpress": 3246,
      "Ġtelling": 3247,
      "overed": 3248,
      "Ġtend": 3249,
      "Ġinside": 3250,
      "Ġinflu": 3251,
      "Ġcaptains": 3252,
      "Ġsought": 3253,
      "velop": 3254,
      "itional": 3255,
      "aneously": 3256,
      "Ġclean": 3257,
      "Ġnameless": 3258,
      "Ġfloated": 3259,
      "lenty": 3260,
      "Ġmoon": 3261,
      "Ġgives": 3262,
      "white": 3263,
      "Ġelev": 3264,
      "Ġmerely": 3265,
      "Ġgolden": 3266,
      "Ġawful": 3267,
      "Ġguess": 3268,
      "ĠDeath": 3269,
      "Ġchiefly": 3270,
      "Ġobserved": 3271,
      "ĠPerth": 3272,
      "ology": 3273,
      "Ġbarbar": 3274,
      "Ġdifference": 3275,
      "Ġregularly": 3276,
      "Ġrevealed": 3277,
      "Ġhorizon": 3278,
      "ohn": 3279,
      "Ġengaged": 3280,
      "Ġmusk": 3281,
      "Ġpicture": 3282,
      "Ġpictures": 3283,
      "Ġidol": 3284,
      "Ġcrowd": 3285,
      "Ġquietly": 3286,
      "Ġfoolish": 3287,
      "ĠAfter": 3288,
      "Ġeternal": 3289,
      "attoo": 3290,
      "Ġmaj": 3291,
      "Ġprodigious": 3292,
      "Ġexample": 3293,
      "Ġindividual": 3294,
      "Ġopposite": 3295,
      ").": 3296,
      ".*": 3297,
      "Captain": 3298,
      "How": 3299,
      "IS": 3300,
      "LE": 3301,
      "Yes": 3302,
      "bl": 3303,
      "bit": 3304,
      "don": 3305,
      "hil": 3306,
      "ien": 3307,
      "ope": 3308,
      "pes": 3309,
      "uc": 3310,
      "Ġtreat": 3311,
      "hest": 3312,
      "Ġain": 3313,
      "ination": 3314,
      "Ġwise": 3315,
      "rent": 3316,
      "hal": 3317,
      "erc": 3318,
      "Ġbore": 3319,
      "ingers": 3320,
      "Ġmeth": 3321,
      "Ġfield": 3322,
      "Ġcaus": 3323,
      "Ġcounter": 3324,
      "Ġtoma": 3325,
      "Ġpir": 3326,
      "Ġpad": 3327,
      "Ġdig": 3328,
      "asm": 3329,
      "asp": 3330,
      "Ġlab": 3331,
      "Ġlying": 3332,
      "Ġlips": 3333,
      "Ġthine": 3334,
      "Ġhemp": 3335,
      "uted": 3336,
      "Ġgra": 3337,
      "Ġeh": 3338,
      "Ġstat": 3339,
      "Ġstir": 3340,
      "Ġstout": 3341,
      "Ġstiff": 3342,
      "aling": 3343,
      "Ġseason": 3344,
      "vered": 3345,
      "achel": 3346,
      "Ġwithdra": 3347,
      "Ġrace": 3348,
      "Ġrang": 3349,
      "Ġfort": 3350,
      "Ġforced": 3351,
      "Ġrever": 3352,
      "ĠAd": 3353,
      "ĠAm": 3354,
      "Ġwear": 3355,
      "ilos": 3356,
      "Ġspine": 3357,
      "anting": 3358,
      "Ġconn": 3359,
      "ĠHus": 3360,
      "Ġunp": 3361,
      "ĠFast": 3362,
      "rah": 3363,
      "Ġfeed": 3364,
      "ĠMy": 3365,
      "ĠMay": 3366,
      "though": 3367,
      "Ġplank": 3368,
      "Ġtrying": 3369,
      "Ġtrunk": 3370,
      "ĠGo": 3371,
      "ĠGood": 3372,
      "Ġflame": 3373,
      "icken": 3374,
      "Ġshape": 3375,
      "Ġlonger": 3376,
      "Ġbring": 3377,
      "Ġamid": 3378,
      "Ġamber": 3379,
      "Ġowners": 3380,
      "Ġobe": 3381,
      "Ġdesper": 3382,
      "ularly": 3383,
      "Ġsubtle": 3384,
      "Ġsubsequ": 3385,
      "Ġmarve": 3386,
      "Ġaccompan": 3387,
      "Ġcrews": 3388,
      "Ġlowering": 3389,
      "Ġsurr": 3390,
      "Ġincred": 3391,
      "Ġinserted": 3392,
      "Ġmonths": 3393,
      "Ġinfer": 3394,
      "Ġirons": 3395,
      "Ġnative": 3396,
      "aneous": 3397,
      "Ġinstantly": 3398,
      "Ġspecial": 3399,
      "Ġartic": 3400,
      "Ġcontinually": 3401,
      "Ġsimult": 3402,
      "Ġmarked": 3403,
      "Ġadvancing": 3404,
      "Ġsolid": 3405,
      "Ġoarsmen": 3406,
      "ground": 3407,
      "Ġsymb": 3408,
      "Ġdelight": 3409,
      "Ġminute": 3410,
      "Ġpreviously": 3411,
      "Ġsilence": 3412,
      "Ġmuttered": 3413,
      "Ġsixty": 3414,
      "mitted": 3415,
      "Ġgaze": 3416,
      "Ġrush": 3417,
      "Ġdestro": 3418,
      "Ġchildren": 3419,
      "Ġcaptured": 3420,
      "Ġbuoy": 3421,
      "Ġanimal": 3422,
      "ommod": 3423,
      "Ġpleasant": 3424,
      "Ġtorment": 3425,
      "Ġmystic": 3426,
      "Ġshouted": 3427,
      "Ġcoward": 3428,
      "Ġdoubloon": 3429,
      "Ġlantern": 3430,
      "possible": 3431,
      "Ġimmense": 3432,
      "ĠYojo": 3433,
      "Ġtomahawk": 3434,
      "ĠHussey": 3435,
      "Ġsymbol": 3436,
      "come": 3437,
      "cri": 3438,
      "ek": 3439,
      "eks": 3440,
      "iant": 3441,
      "oon": 3442,
      "osed": 3443,
      "rise": 3444,
      "uel": 3445,
      "uzz": 3446,
      "xion": 3447,
      "zen": 3448,
      "Ġz": 3449,
      "Ġess": 3450,
      "Ġvel": 3451,
      "Ġtar": 3452,
      "Ġtattoo": 3453,
      "iny": 3454,
      "ince": 3455,
      "erv": 3456,
      "Ġber": 3457,
      "ister": 3458,
      "Ġmould": 3459,
      "Ġmort": 3460,
      "oul": 3461,
      "Ġfath": 3462,
      "Ġfaint": 3463,
      "Ġcred": 3464,
      "Ġcries": 3465,
      "Ġcunning": 3466,
      "Ġine": 3467,
      "Ġinqu": 3468,
      "arm": 3469,
      "Ġpub": 3470,
      "Ġpuff": 3471,
      "Ġdil": 3472,
      "Ġdinner": 3473,
      "anwhile": 3474,
      "ased": 3475,
      "Ġla": 3476,
      "Ġlif": 3477,
      "Ġthinks": 3478,
      "owers": 3479,
      "Ġheave": 3480,
      "stant": 3481,
      "Ġbef": 3482,
      "Ġbeach": 3483,
      "Ġbeaut": 3484,
      "Ġeast": 3485,
      "iced": 3486,
      "Ġstopp": 3487,
      "Ġstarboard": 3488,
      "idn": 3489,
      "ĠTur": 3490,
      "ĠSqu": 3491,
      "Ġweap": 3492,
      "Ġshowed": 3493,
      "ament": 3494,
      "Ġsuck": 3495,
      "Ġsusp": 3496,
      "ĠBecause": 3497,
      "room": 3498,
      "Ġbutter": 3499,
      "Ġvirtue": 3500,
      "Ġvibr": 3501,
      "Ġvenge": 3502,
      "ĠChar": 3503,
      "Ġspite": 3504,
      "Ġorg": 3505,
      "Ġconven": 3506,
      "ĠHa": 3507,
      "uming": 3508,
      "Ġunb": 3509,
      "orted": 3510,
      "Ġje": 3511,
      "Ġexcel": 3512,
      "raid": 3513,
      "Ġlikewise": 3514,
      "Ġpress": 3515,
      "ĠDough": 3516,
      "Ġproved": 3517,
      "aved": 3518,
      "Ġflames": 3519,
      "Ġgrim": 3520,
      "Ġimag": 3521,
      "Ġscrew": 3522,
      "Ġscient": 3523,
      "ountered": 3524,
      "ĠRam": 3525,
      "Ġprot": 3526,
      "Ġprincip": 3527,
      "Ġcalc": 3528,
      "ints": 3529,
      "ernal": 3530,
      "Ġcarries": 3531,
      "Ġsteward": 3532,
      "berg": 3533,
      "Ġmarks": 3534,
      "Ġwhar": 3535,
      "Ġwhaler": 3536,
      "Ġlands": 3537,
      "Ġopin": 3538,
      "Ġ13": 3539,
      "Ġinvari": 3540,
      "Ġfully": 3541,
      "Ġheavens": 3542,
      "airs": 3543,
      "Ġspermaceti": 3544,
      "Ġsnat": 3545,
      "Ġnatur": 3546,
      "ĠVoy": 3547,
      "Ġfeels": 3548,
      "Ġdouble": 3549,
      "Ġhatch": 3550,
      "Ġspouts": 3551,
      "Ġbreaking": 3552,
      "Ġpossess": 3553,
      "Ġputting": 3554,
      "Ġactually": 3555,
      "Ġspray": 3556,
      "Ġafford": 3557,
      "Ġcommander": 3558,
      "ocation": 3559,
      "Ġoccup": 3560,
      "Ġmeaning": 3561,
      "Ġthousands": 3562,
      "Ġsatis": 3563,
      "Ġearthly": 3564,
      "Ġencounter": 3565,
      "Ġencountered": 3566,
      "Ġmadness": 3567,
      "ĠMeanwhile": 3568,
      "Ġhappened": 3569,
      "Ġmountain": 3570,
      "Ġtransp": 3571,
      "Ġcrossing": 3572,
      "Ġfairly": 3573,
      "Ġrocks": 3574,
      "Ġdragged": 3575,
      "Ġfriends": 3576,
      "Ġshadow": 3577,
      "Ġnumerous": 3578,
      "Ġmariner": 3579,
      "Ġimmortal": 3580,
      "Ġbarrels": 3581,
      "Ġfurnished": 3582,
      "Ġoriginally": 3583,
      "Ġdropping": 3584,
      "Ġdrive": 3585,
      "Ġfierce": 3586,
      "Ġphilos": 3587,
      "Ġconduct": 3588,
      "Ġstroke": 3589,
      "Ġperilous": 3590,
      "Ġextreme": 3591,
      "Ġtackles": 3592,
      "Ġhitherto": 3593,
      "Ġpaused": 3594,
      "Ġtroubled": 3595,
      "innacle": 3596,
      "Ġcorner": 3597,
      "ĠCoffin": 3598,
      "Ġyonder": 3599,
      "Ġlungs": 3600,
      "Ġhorizontal": 3601,
      "Ġcivilized": 3602,
      "Ġunaccountable": 3603,
      "ĠQueen": 3604,
      "Ġmarvell": 3605,
      "Ġscientific": 3606,
      "Ġphilosop": 3607,
      "Boy": 3608,
      "cceed": 3609,
      "ech": 3610,
      "gain": 3611,
      "ium": 3612,
      "jah": 3613,
      "lings": 3614,
      "oved": 3615,
      "uce": 3616,
      "uable": 3617,
      "ĠZ": 3618,
      "Ġident": 3619,
      "Ġtal": 3620,
      "Ġtried": 3621,
      "Ġtrop": 3622,
      "inous": 3623,
      "Ġsank": 3624,
      "rees": 3625,
      "haust": 3626,
      "erve": 3627,
      "Ġbid": 3628,
      "Ġbub": 3629,
      "Ġbab": 3630,
      "Ġbale": 3631,
      "Ġbinnacle": 3632,
      "Ġmir": 3633,
      "Ġmult": 3634,
      "Ġfut": 3635,
      "Ġfanc": 3636,
      "Ġfaces": 3637,
      "eng": 3638,
      "Ġinch": 3639,
      "Ġinex": 3640,
      "Ġhoo": 3641,
      "Ġhill": 3642,
      "orious": 3643,
      "arch": 3644,
      "Ġpure": 3645,
      "Ġpains": 3646,
      "Ġpushed": 3647,
      "Ġpagan": 3648,
      "Ġpumps": 3649,
      "Ġprair": 3650,
      "Ġplenty": 3651,
      "Ġdust": 3652,
      "Ġdare": 3653,
      "Ġdumb": 3654,
      "anks": 3655,
      "Ġnav": 3656,
      "Ġthro": 3657,
      "utable": 3658,
      "Ġeat": 3659,
      "imate": 3660,
      "iring": 3661,
      "etic": 3662,
      "Ġasce": 3663,
      "Ġrag": 3664,
      "urb": 3665,
      "Ġreel": 3666,
      "ĠAh": 3667,
      "ooping": 3668,
      "Ġweary": 3669,
      "Ġfrost": 3670,
      "Ġfrantic": 3671,
      "Ġsucceed": 3672,
      "iful": 3673,
      "ifying": 3674,
      "ĠCet": 3675,
      "Ġmel": 3676,
      "Ġmechan": 3677,
      "Ġspace": 3678,
      "Ġspect": 3679,
      "Ġbox": 3680,
      "Ġboiling": 3681,
      "Ġsave": 3682,
      "Ġconsequ": 3683,
      "outher": 3684,
      "ounding": 3685,
      "Ġthereby": 3686,
      "umped": 3687,
      "Ġintent": 3688,
      "Ġnearer": 3689,
      "Ġjump": 3690,
      "Ġexpect": 3691,
      "ĠMore": 3692,
      "idered": 3693,
      "Ġdoing": 3694,
      "ĠLine": 3695,
      "ĠLoose": 3696,
      "Ġworking": 3697,
      "Ġafraid": 3698,
      "Ġherd": 3699,
      "Ġholy": 3700,
      "Ġwatching": 3701,
      "Ġbrother": 3702,
      "Ġamaz": 3703,
      "Ġgrown": 3704,
      "Ġimpossible": 3705,
      "Ġseek": 3706,
      "arest": 3707,
      "inking": 3708,
      "Ġscor": 3709,
      "Ġslid": 3710,
      "Ġadvent": 3711,
      "ĠRoman": 3712,
      "Ġindirect": 3713,
      "lijah": 3714,
      "ection": 3715,
      "Ġourselves": 3716,
      "Ġdesp": 3717,
      "Ġknowing": 3718,
      "Ġmarble": 3719,
      "Ġends": 3720,
      "Ġendless": 3721,
      "Ġaccur": 3722,
      "ĠSoon": 3723,
      "Ġinvisible": 3724,
      "Ġbecom": 3725,
      "Ġheaving": 3726,
      "Ġmonoman": 3727,
      "Ġmonkey": 3728,
      "Ġsecure": 3729,
      "Ġsecured": 3730,
      "Ġinfall": 3731,
      "Ġembr": 3732,
      "Ġhelped": 3733,
      "anean": 3734,
      "Ġstreets": 3735,
      "hys": 3736,
      "ships": 3737,
      "Ġmoving": 3738,
      "Ġlads": 3739,
      "Ġvisit": 3740,
      "Ġmissing": 3741,
      "Ġdevils": 3742,
      "umbling": 3743,
      "Ġdirection": 3744,
      "knife": 3745,
      "Ġcareful": 3746,
      "Ġsupposed": 3747,
      "Ġlatitudes": 3748,
      "Ġhonest": 3749,
      "Ġutmost": 3750,
      "Ġrushed": 3751,
      "Ġrushing": 3752,
      "Ġwaist": 3753,
      "ĠIsland": 3754,
      "Ġofficer": 3755,
      "ĠTrue": 3756,
      "Ġpalms": 3757,
      "Ġspoke": 3758,
      "Ġpulpit": 3759,
      "Ġnarrow": 3760,
      "Ġexceedingly": 3761,
      "Ġevents": 3762,
      "Ġmentioned": 3763,
      "Ġsuffic": 3764,
      "Ġhistory": 3765,
      "Ġexclaimed": 3766,
      "Ġdescend": 3767,
      "looking": 3768,
      "Ġvapor": 3769,
      "Ġfrequently": 3770,
      "Ġdisappeared": 3771,
      "Ġposition": 3772,
      "Ġemployed": 3773,
      "ĠWhether": 3774,
      "Ġmarvellous": 3775,
      ");": 3776,
      "Mr": 3777,
      "Who": 3778,
      "can": 3779,
      "cial": 3780,
      "ece": 3781,
      "ker": 3782,
      "kind": 3783,
      "mpt": 3784,
      "oa": 3785,
      "pie": 3786,
      "tons": 3787,
      "uish": 3788,
      "uoy": 3789,
      "vas": 3790,
      "vings": 3791,
      "wo": 3792,
      "Ġawe": 3793,
      "inated": 3794,
      "Ġsac": 3795,
      "Ġsense": 3796,
      "Ġworth": 3797,
      "Ġband": 3798,
      "Ġbuck": 3799,
      "Ġbull": 3800,
      "leet": 3801,
      "Ġmill": 3802,
      "itated": 3803,
      "Ġfood": 3804,
      "Ġfiend": 3805,
      "Ġcity": 3806,
      "enes": 3807,
      "Ġhit": 3808,
      "Ġhue": 3809,
      "Ġtoil": 3810,
      "Ġtoken": 3811,
      "Ġtowing": 3812,
      "Ġpall": 3813,
      "Ġpiled": 3814,
      "Ġdry": 3815,
      "anish": 3816,
      "asc": 3817,
      "Ġling": 3818,
      "Ġlod": 3819,
      "Ġlifted": 3820,
      "Ġnay": 3821,
      "Ġnur": 3822,
      "Ġnaked": 3823,
      "Ġhell": 3824,
      "Ġhail": 3825,
      "Ġgay": 3826,
      "Ġgrew": 3827,
      "Ġgained": 3828,
      "icul": 3829,
      "icable": 3830,
      "icious": 3831,
      "otch": 3832,
      "otted": 3833,
      "verted": 3834,
      "acher": 3835,
      "aches": 3836,
      "Ġasked": 3837,
      "Ġreach": 3838,
      "ĠTH": 3839,
      "ĠTown": 3840,
      "ĠTun": 3841,
      "oop": 3842,
      "Ġshook": 3843,
      "Ġsoot": 3844,
      "Ġdeemed": 3845,
      "alling": 3846,
      "ĠWhaling": 3847,
      "Ġvague": 3848,
      "ĠCon": 3849,
      "Ġmeant": 3850,
      "ĠPorpoise": 3851,
      "ument": 3852,
      "Ġunseen": 3853,
      "Ġintol": 3854,
      "Ġintens": 3855,
      "Ġintellig": 3856,
      "Ġkings": 3857,
      "Ġextern": 3858,
      "Ġwhence": 3859,
      "Ġwhenever": 3860,
      "olar": 3861,
      "olio": 3862,
      "Ġages": 3863,
      "Ġprey": 3864,
      "geon": 3865,
      "ĠLond": 3866,
      "Ġpointing": 3867,
      "aven": 3868,
      "Ġknife": 3869,
      "Ġharm": 3870,
      "Ġflank": 3871,
      "Ġanywhere": 3872,
      "Ġcanvas": 3873,
      "Ġshake": 3874,
      "ĠOr": 3875,
      "Ġrob": 3876,
      "Ġgrad": 3877,
      "ĠEgy": 3878,
      "Ġsmell": 3879,
      "Ġglided": 3880,
      "Ġchased": 3881,
      "aunt": 3882,
      "ĠJohn": 3883,
      "Ġwhereas": 3884,
      "Ġobl": 3885,
      "onsid": 3886,
      "Ġkey": 3887,
      "Ġfoe": 3888,
      "Ġinstinct": 3889,
      "Ġconscious": 3890,
      "Ġconsidered": 3891,
      "Ġenter": 3892,
      "Ġentered": 3893,
      "Ġmarvel": 3894,
      "Ġwindow": 3895,
      "Ġ17": 3896,
      "Ġincre": 3897,
      "cience": 3898,
      "Ġhumor": 3899,
      "iction": 3900,
      "ishery": 3901,
      "Ġhorrible": 3902,
      "Ġburied": 3903,
      "Ġstream": 3904,
      "Ġcraw": 3905,
      "Ġminds": 3906,
      "Ġopening": 3907,
      "Ġrecogn": 3908,
      "Ġoceans": 3909,
      "Ġpoints": 3910,
      "Ġmoved": 3911,
      "ocity": 3912,
      "Ġextra": 3913,
      "Ġretreat": 3914,
      "Ġcontinual": 3915,
      "Ġcontinued": 3916,
      "Ġclosely": 3917,
      "Ġoarsman": 3918,
      "Ġconfident": 3919,
      "Ġenchant": 3920,
      "Ġdeparted": 3921,
      "ĠHowever": 3922,
      "Ġterrific": 3923,
      "Ġrolls": 3924,
      "gris": 3925,
      "atively": 3926,
      "Ġmurm": 3927,
      "Ġmounted": 3928,
      "Ġlatter": 3929,
      "lected": 3930,
      "lection": 3931,
      "Ġbooks": 3932,
      "retched": 3933,
      "Thou": 3934,
      "Ġshadows": 3935,
      "Ġsummer": 3936,
      "Ġdarting": 3937,
      "Ġequal": 3938,
      "Ġleaping": 3939,
      "Ġphren": 3940,
      "Ġcarrying": 3941,
      "Ġsilently": 3942,
      "Ġengra": 3943,
      "Ġtempest": 3944,
      "Ġcapture": 3945,
      "Ġoccasionally": 3946,
      "Ġinvolunt": 3947,
      "ĠAfric": 3948,
      "Ġlocked": 3949,
      "Ġreturned": 3950,
      "Ġwrinkled": 3951,
      "Ġwrinkles": 3952,
      "Ġcorpse": 3953,
      "Ġdeliber": 3954,
      "Ġperceived": 3955,
      "Ġprivate": 3956,
      "Ġattend": 3957,
      "Ġremember": 3958,
      "Ġtumult": 3959,
      "Ġphantom": 3960,
      "Ġimmediately": 3961,
      "Ġcustomary": 3962,
      "Ġcritical": 3963,
      "Ġsimultaneously": 3964,
      "Ġtormented": 3965,
      "ĠRamad": 3966,
      "Ġopinion": 3967,
      "Ġfuture": 3968,
      "ĠLondon": 3969,
      "ĠEgypt": 3970,
      ").âĢĶ": 3971,
      "That": 3972,
      "aly": 3973,
      "away": 3974,
      "bow": 3975,
      "bound": 3976,
      "boy": 3977,
      "cut": 3978,
      "gment": 3979,
      "hood": 3980,
      "iot": 3981,
      "iently": 3982,
      "ios": 3983,
      "ikes": 3984,
      "mat": 3985,
      "more": 3986,
      "pid": 3987,
      "rus": 3988,
      "rance": 3989,
      "sion": 3990,
      "use": 3991,
      "uvi": 3992,
      "with": 3993,
      "zes": 3994,
      "Ġerr": 3995,
      "Ġtast": 3996,
      "Ġtig": 3997,
      "Ġtrave": 3998,
      "hearted": 3999,
      "inate": 4000,
      "Ġsick": 4001,
      "Ġwing": 4002,
      "Ġwish": 4003,
      "hand": 4004,
      "isk": 4005,
      "ision": 4006,
      "lets": 4007,
      "iter": 4008,
      "itive": 4009,
      "Ġfer": 4010,
      "Ġfal": 4011,
      "Ġfingers": 4012,
      "Ġcou": 4013,
      "enance": 4014,
      "armed": 4015,
      "arwhale": 4016,
      "Ġtore": 4017,
      "Ġpin": 4018,
      "Ġpred": 4019,
      "Ġdost": 4020,
      "Ġdire": 4021,
      "Ġdiff": 4022,
      "Ġdying": 4023,
      "ann": 4024,
      "anch": 4025,
      "Ġnaught": 4026,
      "Ġnerv": 4027,
      "ompl": 4028,
      "Ġhealth": 4029,
      "Ġbears": 4030,
      "Ġgle": 4031,
      "Ġgen": 4032,
      "Ġgri": 4033,
      "Ġemer": 4034,
      "icy": 4035,
      "Ġstar": 4036,
      "Ġstone": 4037,
      "alo": 4038,
      "Ġsend": 4039,
      "Ġseven": 4040,
      "Ġru": 4041,
      "Ġrain": 4042,
      "Ġrust": 4043,
      "ĠAb": 4044,
      "ĠSam": 4045,
      "ĠSund": 4046,
      "cean": 4047,
      "Ġanx": 4048,
      "Ġshut": 4049,
      "Ġshudd": 4050,
      "Ġshrie": 4051,
      "ĠBung": 4052,
      "illy": 4053,
      "Ġdeal": 4054,
      "aping": 4055,
      "ĠWill": 4056,
      "Ġsport": 4057,
      "Ġwheel": 4058,
      "Ġlived": 4059,
      "antity": 4060,
      "Ġconve": 4061,
      "ctic": 4062,
      "ĠHad": 4063,
      "ĠHist": 4064,
      "Ġmankind": 4065,
      "Ġunivers": 4066,
      "Ġneither": 4067,
      "aks": 4068,
      "Ġtheirs": 4069,
      "ĠStill": 4070,
      "Ġexhaust": 4071,
      "tains": 4072,
      "Ġplanted": 4073,
      "Ġaband": 4074,
      "Ġpreced": 4075,
      "ĠDel": 4076,
      "ĠDerick": 4077,
      "Ġtrows": 4078,
      "Ġprove": 4079,
      "Ġprolong": 4080,
      "avo": 4081,
      "ĠGreat": 4082,
      "Ġstrang": 4083,
      "Ġswell": 4084,
      "Ġswinging": 4085,
      "Ġquit": 4086,
      "Ġquantity": 4087,
      "Ġhandle": 4088,
      "Ġcoff": 4089,
      "Ġthrow": 4090,
      "Ġroared": 4091,
      "!âĢĿâĢĶ": 4092,
      "Ġgreater": 4093,
      "Ġpartly": 4094,
      "Ġcrack": 4095,
      "ĠEre": 4096,
      "ĠEur": 4097,
      "ĠElijah": 4098,
      "Ġgliding": 4099,
      "ĠThr": 4100,
      "Ġdisp": 4101,
      "ĠJer": 4102,
      "Ġinde": 4103,
      "Ġindisp": 4104,
      "liest": 4105,
      "Ġloom": 4106,
      "Ġshoulders": 4107,
      "Ġdesign": 4108,
      "Ġmatters": 4109,
      "Ġcarved": 4110,
      "ĠYe": 4111,
      "Ġcask": 4112,
      "Ġlighted": 4113,
      "Ġsurv": 4114,
      "Ġincident": 4115,
      "Ġtiller": 4116,
      "Ġinsult": 4117,
      "Ġirres": 4118,
      "Ġcircles": 4119,
      "Ġsooner": 4120,
      "Ġpresently": 4121,
      "Ġapparent": 4122,
      "Ġrepres": 4123,
      "Ġchanced": 4124,
      "Ġreadily": 4125,
      "Ġcapst": 4126,
      "Ġtouched": 4127,
      "Ġcrazy": 4128,
      "Ġattempt": 4129,
      "Ġconcent": 4130,
      "Ġuncons": 4131,
      "Ġsigns": 4132,
      "respo": 4133,
      "Ġswear": 4134,
      "Ġsprang": 4135,
      "Ġsounding": 4136,
      "ounced": 4137,
      "Ġladies": 4138,
      "Ġlively": 4139,
      "Ġextr": 4140,
      "which": 4141,
      "Ġsquee": 4142,
      "sued": 4143,
      "Ġfamil": 4144,
      "Ġfamily": 4145,
      "Ġseaman": 4146,
      "Ġacqu": 4147,
      "Ġserv": 4148,
      "Ġwonders": 4149,
      "Ġcalmly": 4150,
      "Ġrelig": 4151,
      "Ġlatitude": 4152,
      "Ġleaned": 4153,
      "Ġcontrast": 4154,
      "Ġprophet": 4155,
      "ĠOnly": 4156,
      "Ġbreakfast": 4157,
      "Ġslightly": 4158,
      "Ġdescri": 4159,
      "Ġspoken": 4160,
      "Ġbelonged": 4161,
      "Ġhurry": 4162,
      "ĠManx": 4163,
      "Ġsplit": 4164,
      "Ġpulled": 4165,
      "Ġconceit": 4166,
      "Ġsinking": 4167,
      "Ġanti": 4168,
      "noon": 4169,
      "Ġmoody": 4170,
      "Ġhistor": 4171,
      "Ġmilk": 4172,
      "Ġdeclared": 4173,
      "Ġforget": 4174,
      "Ġvolume": 4175,
      "Ġswallowed": 4176,
      "Ġutterly": 4177,
      "Ġsilver": 4178,
      "Ġpractical": 4179,
      "Ġresolved": 4180,
      "Ġdangerous": 4181,
      "Ġremarkable": 4182,
      "Ġhideous": 4183,
      "Ġponderous": 4184,
      "Ġsubsequent": 4185,
      "Ġfathoms": 4186,
      "Ġindirectly": 4187,
      "Ġtrowsers": 4188,
      "Ahab": 4189,
      "On": 4190,
      "Sir": 4191,
      "ald": 4192,
      "bid": 4193,
      "col": 4194,
      "do": 4195,
      "ees": 4196,
      "ext": 4197,
      "gl": 4198,
      "gel": 4199,
      "house": 4200,
      "lad": 4201,
      "lished": 4202,
      "lifted": 4203,
      "now": 4204,
      "oam": 4205,
      "pet": 4206,
      "rim": 4207,
      "tr": 4208,
      "val": 4209,
      "vious": 4210,
      "vation": 4211,
      "when": 4212,
      "zing": 4213,
      "zed": 4214,
      "Ġtest": 4215,
      "hew": 4216,
      "Ġax": 4217,
      "Ġsand": 4218,
      "Ġsize": 4219,
      "Ġwine": 4220,
      "Ġwicked": 4221,
      "rel": 4222,
      "rect": 4223,
      "rene": 4224,
      "ham": 4225,
      "Ġbir": 4226,
      "Ġbent": 4227,
      "Ġbench": 4228,
      "Ġmuff": 4229,
      "Ġmoney": 4230,
      "ites": 4231,
      "itions": 4232,
      "oung": 4233,
      "Ġfare": 4234,
      "Ġfinger": 4235,
      "Ġfoul": 4236,
      "Ġcable": 4237,
      "Ġcling": 4238,
      "Ġcup": 4239,
      "eds": 4240,
      "oning": 4241,
      "Ġinner": 4242,
      "Ġhous": 4243,
      "aries": 4244,
      "lls": 4245,
      "Ġpair": 4246,
      "Ġpyr": 4247,
      "anity": 4248,
      "Ġlip": 4249,
      "Ġnations": 4250,
      "Ġnames": 4251,
      "Ġnorth": 4252,
      "Ġthreat": 4253,
      "Ġhears": 4254,
      "Ġbeth": 4255,
      "Ġginger": 4256,
      "Ġeating": 4257,
      "otten": 4258,
      "Ġsto": 4259,
      "Ġstay": 4260,
      "Ġstars": 4261,
      "Ġstubb": 4262,
      "Ġstump": 4263,
      "Ġyard": 4264,
      "Ġsem": 4265,
      "Ġserene": 4266,
      "ett": 4267,
      "Ġashes": 4268,
      "Ġrail": 4269,
      "Ġforce": 4270,
      "Ġisles": 4271,
      "Ġreign": 4272,
      "Ġrevel": 4273,
      "Ġreaching": 4274,
      "ĠTake": 4275,
      "ĠSw": 4276,
      "amid": 4277,
      "Ġsocial": 4278,
      "Ġfrag": 4279,
      "astic": 4280,
      "Ġdear": 4281,
      "Ġled": 4282,
      "Ġvent": 4283,
      "ĠCar": 4284,
      "Ġmeat": 4285,
      "Ġmeas": 4286,
      "Ġspars": 4287,
      "Ġspade": 4288,
      "agon": 4289,
      "Ġbol": 4290,
      "Ġboots": 4291,
      "Ġliken": 4292,
      "emin": 4293,
      "ĠPro": 4294,
      "ĠHar": 4295,
      "Ġmanned": 4296,
      "Ġunspe": 4297,
      "Ġkick": 4298,
      "Ġjer": 4299,
      "Ġexh": 4300,
      "Ġexte": 4301,
      "ishment": 4302,
      "Ġblock": 4303,
      "pointed": 4304,
      "Ġtimid": 4305,
      "Ġworks": 4306,
      "Ġtranqu": 4307,
      "Ġprog": 4308,
      "Ġaflo": 4309,
      "ĠGl": 4310,
      "ĠGree": 4311,
      "eping": 4312,
      "Ġflat": 4313,
      "Ġflight": 4314,
      "Ġarr": 4315,
      "Ġarchan": 4316,
      "udge": 4317,
      "Ġcanal": 4318,
      "Ġdownwards": 4319,
      "ellow": 4320,
      "Ġcoll": 4321,
      "Ġcover": 4322,
      "Ġhosp": 4323,
      "Ġusage": 4324,
      "Ġgras": 4325,
      "Ġgreatest": 4326,
      "Ġoffered": 4327,
      "Ġscat": 4328,
      "Ġclim": 4329,
      "Ġclam": 4330,
      "Ġclum": 4331,
      "Ġclass": 4332,
      "ĠEm": 4333,
      "Ġslain": 4334,
      "Ġslip": 4335,
      "Ġhowling": 4336,
      "Ġprim": 4337,
      "Ġcho": 4338,
      "clock": 4339,
      "Ġremot": 4340,
      "Ġobli": 4341,
      "Ġshoulder": 4342,
      "angs": 4343,
      "angu": 4344,
      "ernsey": 4345,
      "Ġmater": 4346,
      "Ġconscience": 4347,
      "Ġknowledge": 4348,
      "Ġcommun": 4349,
      "Ġende": 4350,
      "ensable": 4351,
      "Ġlanded": 4352,
      "Ġdisting": 4353,
      "Ġimpat": 4354,
      "Ġinterior": 4355,
      "Ġheaved": 4356,
      "Ġinfinite": 4357,
      "Ġbegin": 4358,
      "Ġmoments": 4359,
      "Ġsights": 4360,
      "Ġsnug": 4361,
      "Ġsettled": 4362,
      "Ġvoyages": 4363,
      "ugged": 4364,
      "ĠVirgin": 4365,
      "Ġburning": 4366,
      "Ġspouting": 4367,
      "Ġcaps": 4368,
      "Ġlengthwise": 4369,
      "Ġbowels": 4370,
      "Ġrecord": 4371,
      "Ġcorrespo": 4372,
      "Ġresting": 4373,
      "arthly": 4374,
      "Ġkeeping": 4375,
      "Ġsounds": 4376,
      "Ġforms": 4377,
      "Ġforming": 4378,
      "rup": 4379,
      "ruct": 4380,
      "Ġmeanwhile": 4381,
      "Ġcalls": 4382,
      "Ġsimple": 4383,
      "Ġelement": 4384,
      "Ġcourage": 4385,
      "Ġlesson": 4386,
      "Ġcentral": 4387,
      "Ġadditional": 4388,
      "Ġreference": 4389,
      "ĠMrs": 4390,
      "Ġcountenance": 4391,
      "Ġfearful": 4392,
      "Ġmotions": 4393,
      "Ġhappens": 4394,
      "Ġplease": 4395,
      "Ġtransf": 4396,
      "Ġcontrary": 4397,
      "Ġcrossed": 4398,
      "ĠAmerica": 4399,
      "Ġbitter": 4400,
      "Ġtossing": 4401,
      "Ġtriump": 4402,
      "regation": 4403,
      "Ġbarbs": 4404,
      "Ġdoubtless": 4405,
      "Ġaston": 4406,
      "Ġdeterm": 4407,
      "Ġcatch": 4408,
      "Ġleaped": 4409,
      "ĠQuaker": 4410,
      "Ġislands": 4411,
      "Ġsalt": 4412,
      "Ġshoot": 4413,
      "Ġexceeding": 4414,
      "Ġmalice": 4415,
      "Ġfitted": 4416,
      "Ġfirmly": 4417,
      "Ġbursting": 4418,
      "Ġfalling": 4419,
      "Ġsadly": 4420,
      "Ġodd": 4421,
      "Ġpainted": 4422,
      "ĠBlack": 4423,
      "after": 4424,
      "ĠIII": 4425,
      "Ġsweeping": 4426,
      "Ġresemb": 4427,
      "Ġprobably": 4428,
      "Ġtapering": 4429,
      "Ġarrived": 4430,
      "Ġtongue": 4431,
      "Ġhorror": 4432,
      "Ġtravel": 4433,
      "Ġblanket": 4434,
      "Ġcenturies": 4435,
      "Ġmurderer": 4436,
      "Ġlonely": 4437,
      "Ġprepared": 4438,
      "Ġunearthly": 4439,
      "Ġindifferent": 4440,
      "Ġsuperstitious": 4441,
      "Ġfashion": 4442,
      "Ġunusual": 4443,
      "ĠGuernsey": 4444,
      "Ġchurch": 4445,
      "ienced": 4446,
      "Ġcaused": 4447,
      "Ġconnected": 4448,
      "Ġambergris": 4449,
      "Ġinferior": 4450,
      "Ġexcellent": 4451,
      "Ġnaturally": 4452,
      "outhern": 4453,
      "Ġbecomes": 4454,
      "Ġexternal": 4455,
      "Ġenchanted": 4456,
      "Ġmurmured": 4457,
      "ĠRamadan": 4458,
      "Ġtravell": 4459,
      "ĠBunger": 4460,
      "Ġindispensable": 4461,
      "Ġcapstan": 4462,
      "ĠManxman": 4463,
      "Ġpyramid": 4464,
      "Ġafloat": 4465,
      "All": 4466,
      "Avast": 4467,
      "Come": 4468,
      "Head": 4469,
      "Now": 4470,
      "Post": 4471,
      "We": 4472,
      "Where": 4473,
      "aver": 4474,
      "bly": 4475,
      "buoy": 4476,
      "cer": 4477,
      "ding": 4478,
      "gs": 4479,
      "lines": 4480,
      "mos": 4481,
      "oqu": 4482,
      "overy": 4483,
      "ply": 4484,
      "pic": 4485,
      "rs": 4486,
      "she": 4487,
      "sails": 4488,
      "tling": 4489,
      "uated": 4490,
      "vest": 4491,
      "ws": 4492,
      "well": 4493,
      "why": 4494,
      "xter": 4495,
      "Ġedd": 4496,
      "Ġtink": 4497,
      "Ġtamb": 4498,
      "Ġaught": 4499,
      "Ġoath": 4500,
      "Ġomn": 4501,
      "Ġwore": 4502,
      "Ġwedd": 4503,
      "Ġwinter": 4504,
      "rehe": 4505,
      "Ġbare": 4506,
      "lement": 4507,
      "lence": 4508,
      "leece": 4509,
      "Ġmixed": 4510,
      "oub": 4511,
      "ouched": 4512,
      "Ġfate": 4513,
      "Ġfount": 4514,
      "Ġcre": 4515,
      "Ġchat": 4516,
      "Ġoft": 4517,
      "onom": 4518,
      "Ġpill": 4519,
      "Ġpier": 4520,
      "Ġpicked": 4521,
      "Ġda": 4522,
      "Ġdish": 4523,
      "Ġdived": 4524,
      "Ġdense": 4525,
      "asing": 4526,
      "asons": 4527,
      "ashes": 4528,
      "Ġlid": 4529,
      "Ġlift": 4530,
      "Ġnin": 4531,
      "Ġnail": 4532,
      "Ġnailed": 4533,
      "Ġnamed": 4534,
      "Ġhero": 4535,
      "utation": 4536,
      "Ġbew": 4537,
      "Ġgard": 4538,
      "Ġevil": 4539,
      "seus": 4540,
      "almed": 4541,
      "idence": 4542,
      "Ġseizing": 4543,
      "vere": 4544,
      "acity": 4545,
      "ads": 4546,
      "aye": 4547,
      "aying": 4548,
      "Ġask": 4549,
      "Ġrich": 4550,
      "Ġrack": 4551,
      "Ġforge": 4552,
      "Ġreven": 4553,
      "Ġreasons": 4554,
      "ĠAnt": 4555,
      "ĠAcc": 4556,
      "ĠSy": 4557,
      "ĠSat": 4558,
      "ĠSol": 4559,
      "ĠShip": 4560,
      "ooped": 4561,
      "Ġwelded": 4562,
      "ighted": 4563,
      "Ġshiver": 4564,
      "Ġsoci": 4565,
      "Ġfrig": 4566,
      "Ġsuspect": 4567,
      "Ġnotice": 4568,
      "Ġnoticed": 4569,
      "ĠBur": 4570,
      "ĠBible": 4571,
      "Ġyouth": 4572,
      "Ġupright": 4573,
      "Ġdemon": 4574,
      "Ġdexter": 4575,
      "Ġleag": 4576,
      "apt": 4577,
      "ulating": 4578,
      "Ġvener": 4579,
      "Ġvivid": 4580,
      "Ġvocation": 4581,
      "ĠCl": 4582,
      "ĠCol": 4583,
      "ĠCommod": 4584,
      "ĠConsid": 4585,
      "ĠCuvi": 4586,
      "Ġspar": 4587,
      "Ġspell": 4588,
      "arded": 4589,
      "ctuous": 4590,
      "ounds": 4591,
      "ĠPres": 4592,
      "ĠPolar": 4593,
      "ĠHark": 4594,
      "ĠHigh": 4595,
      "umn": 4596,
      "Ġunctuous": 4597,
      "thern": 4598,
      "akable": 4599,
      "ĠFin": 4600,
      "ĠFather": 4601,
      "ĠFleece": 4602,
      "Ġoutward": 4603,
      "unch": 4604,
      "Ġshipped": 4605,
      "istic": 4606,
      "Ġjun": 4607,
      "Ġjob": 4608,
      "Ġexist": 4609,
      "inds": 4610,
      "Ġplun": 4611,
      "ĠLife": 4612,
      "Ġpocket": 4613,
      "ubs": 4614,
      "Ġprocess": 4615,
      "ĠGe": 4616,
      "Ġstrict": 4617,
      "Ġswells": 4618,
      "Ġque": 4619,
      "Ġquad": 4620,
      "Ġherds": 4621,
      "ourine": 4622,
      "abb": 4623,
      "Ġhoisting": 4624,
      "ĠOcean": 4625,
      "Ġusing": 4626,
      "Ġimage": 4627,
      "Ġseeking": 4628,
      "Ġclos": 4629,
      "ĠEx": 4630,
      "Ġslack": 4631,
      "Ġsmells": 4632,
      "ĠHeaven": 4633,
      "Ġglit": 4634,
      "Ġglancing": 4635,
      "Ġcomprehens": 4636,
      "Ġcomprehe": 4637,
      "Ġchains": 4638,
      "Ġprud": 4639,
      "Ġproud": 4640,
      "Ġloaded": 4641,
      "Ġcontact": 4642,
      "opard": 4643,
      "Ġremorse": 4644,
      "Ġobvious": 4645,
      "orses": 4646,
      "Ġbacks": 4647,
      "Ġdesired": 4648,
      "Ġentit": 4649,
      "oboam": 4650,
      "Ġcommotion": 4651,
      "Ġaccident": 4652,
      "Ġaccompl": 4653,
      "Ġresp": 4654,
      "Ġpassion": 4655,
      "Ġnights": 4656,
      "Ġsunrise": 4657,
      "Ġletter": 4658,
      "Ġspear": 4659,
      "Ġsmaller": 4660,
      "Ġcursed": 4661,
      "Ġcurios": 4662,
      "Ġtender": 4663,
      "Ġbegins": 4664,
      "Ġbroke": 4665,
      "Ġblackness": 4666,
      "Ġapprehens": 4667,
      "Ġsnuff": 4668,
      "iffs": 4669,
      "Ġwritten": 4670,
      "Ġsetting": 4671,
      "Ġrepose": 4672,
      "Ġreplied": 4673,
      "Ġattack": 4674,
      "Ġwarp": 4675,
      "Ġfloats": 4676,
      "Ġsinging": 4677,
      "Ġpeculiarities": 4678,
      "Ġstraits": 4679,
      "Ġcalling": 4680,
      "Ġladder": 4681,
      "Ġfastened": 4682,
      "Ġhearse": 4683,
      "Ġnews": 4684,
      "Ġadvanced": 4685,
      "Ġwanting": 4686,
      "Ġdepart": 4687,
      "Ġverd": 4688,
      "Ġverte": 4689,
      "Ġdelir": 4690,
      "iety": 4691,
      "Ġstraightway": 4692,
      "ĠMeets": 4693,
      "Ġelsewhere": 4694,
      "Ġobjects": 4695,
      "Ġfleet": 4696,
      "Ġstrongly": 4697,
      "Ġobserve": 4698,
      "Ġpriest": 4699,
      "This": 4700,
      "Ġwaif": 4701,
      "Ġreceiving": 4702,
      "Ġsteadily": 4703,
      "Ġhelmsman": 4704,
      "Ġfellows": 4705,
      "Ġfreely": 4706,
      "Ġvalley": 4707,
      "Ġvaluable": 4708,
      "Ġleading": 4709,
      "Ġconcluding": 4710,
      "Ġlovely": 4711,
      "Ġdemanded": 4712,
      "Ġconstern": 4713,
      "Ġexperienced": 4714,
      "Ġmeeting": 4715,
      "Ġshipmate": 4716,
      "Ġearly": 4717,
      "Ġwhispered": 4718,
      "Ġbeholding": 4719,
      "Ġtrouble": 4720,
      "Ġbirds": 4721,
      "Ġspiritual": 4722,
      "Ġmysterious": 4723,
      "Ġterms": 4724,
      "Ġincluded": 4725,
      "Ġinnoc": 4726,
      "Ġpiece": 4727,
      "Ġpieces": 4728,
      "Ġsignificant": 4729,
      "Ġbrief": 4730,
      "Ġadmir": 4731,
      "Ġdrowned": 4732,
      "Ġappearance": 4733,
      "Ġtemporary": 4734,
      "ypho": 4735,
      "Ġblessed": 4736,
      "Ġdomestic": 4737,
      "Ġfeatures": 4738,
      "Ġclouds": 4739,
      "Ġdistrust": 4740,
      "Ġmonstrous": 4741,
      "batross": 4742,
      "Ġsafe": 4743,
      "Ġelevated": 4744,
      "Ġbarbaric": 4745,
      "Ġmethod": 4746,
      "Ġdesperate": 4747,
      "ĠTurk": 4748,
      "Ġvengeance": 4749,
      "Ġconvenient": 4750,
      "Ġwharf": 4751,
      "Ġinvariably": 4752,
      "Ġbaleen": 4753,
      "Ġhoops": 4754,
      "Ġprairie": 4755,
      "Ġdespair": 4756,
      "Ġmonomaniac": 4757,
      "Ġinfallibly": 4758,
      "ĠTHE": 4759,
      "Ġinvoluntarily": 4760,
      "Ġnervous": 4761,
      "Ġprolonged": 4762,
      "ĠJeroboam": 4763,
      "Ġindepend": 4764,
      "Ġfamiliar": 4765,
      "Ġservice": 4766,
      "Ġbirth": 4767,
      "Ġarchangel": 4768,
      "Ġoblique": 4769,
      "Ġendeav": 4770,
      "Ġtambourine": 4771,
      "ĠCuvier": 4772,
      "Do": 4773,
      "My": 4774,
      "Not": 4775,
      "So": 4776,
      "ax": 4777,
      "bol": 4778,
      "eal": 4779,
      "gall": 4780,
      "ggy": 4781,
      "his": 4782,
      "hun": 4783,
      "joy": 4784,
      "kers": 4785,
      "lled": 4786,
      "lance": 4787,
      "mas": 4788,
      "mark": 4789,
      "mates": 4790,
      "morrow": 4791,
      "olent": 4792,
      "pse": 4793,
      "rid": 4794,
      "rap": 4795,
      "rated": 4796,
      "rising": 4797,
      "uv": 4798,
      "uss": 4799,
      "uished": 4800,
      "uously": 4801,
      "was": 4802,
      "wood": 4803,
      "who": 4804,
      "Ġtun": 4805,
      "Ġtide": 4806,
      "Ġtied": 4807,
      "Ġtask": 4808,
      "Ġaud": 4809,
      "Ġaug": 4810,
      "ina": 4811,
      "ino": 4812,
      "inal": 4813,
      "Ġsag": 4814,
      "Ġox": 4815,
      "Ġought": 4816,
      "Ġwet": 4817,
      "Ġwave": 4818,
      "Ġwoman": 4819,
      "Ġwomen": 4820,
      "rec": 4821,
      "hast": 4822,
      "ergy": 4823,
      "Ġbisc": 4824,
      "iti": 4825,
      "Ġfan": 4826,
      "Ġfav": 4827,
      "Ġfins": 4828,
      "Ġcod": 4829,
      "Ġcoun": 4830,
      "edience": 4831,
      "Ġhom": 4832,
      "Ġhorses": 4833,
      "ork": 4834,
      "orial": 4835,
      "lland": 4836,
      "Ġtomb": 4837,
      "Ġtooth": 4838,
      "Ġpour": 4839,
      "Ġpots": 4840,
      "Ġdi": 4841,
      "Ġdamp": 4842,
      "Ġdawn": 4843,
      "aning": 4844,
      "atom": 4845,
      "asper": 4846,
      "Ġloung": 4847,
      "Ġlangu": 4848,
      "Ġnine": 4849,
      "Ġthrew": 4850,
      "Ġthread": 4851,
      "Ġthither": 4852,
      "Ġhearing": 4853,
      "ution": 4854,
      "Ġharem": 4855,
      "ste": 4856,
      "Ġbeating": 4857,
      "Ġgas": 4858,
      "ima": 4859,
      "Ġstage": 4860,
      "Ġstock": 4861,
      "Ġstairs": 4862,
      "alog": 4863,
      "allest": 4864,
      "acting": 4865,
      "eted": 4866,
      "enth": 4867,
      "enting": 4868,
      "ential": 4869,
      "Ġwithstand": 4870,
      "Ġascri": 4871,
      "Ġrod": 4872,
      "Ġrage": 4873,
      "Ġrods": 4874,
      "Ġisol": 4875,
      "Ġretained": 4876,
      "ĠTem": 4877,
      "ĠTell": 4878,
      "ĠTah": 4879,
      "ĠSl": 4880,
      "ĠSag": 4881,
      "ĠSpe": 4882,
      "oored": 4883,
      "ilful": 4884,
      "Ġatmos": 4885,
      "terr": 4886,
      "terday": 4887,
      "chn": 4888,
      "chief": 4889,
      "ama": 4890,
      "Ġsoil": 4891,
      "illing": 4892,
      "asts": 4893,
      "road": 4894,
      "rope": 4895,
      "Ġuplifted": 4896,
      "ckets": 4897,
      "Ġdece": 4898,
      "allied": 4899,
      "Ġleather": 4900,
      "apple": 4901,
      "ĠWas": 4902,
      "ĠWould": 4903,
      "ĠWest": 4904,
      "ulf": 4905,
      "ulation": 4906,
      "Ġvice": 4907,
      "Ġvial": 4908,
      "Ġvict": 4909,
      "ĠCom": 4910,
      "Ġspark": 4911,
      "Ġbos": 4912,
      "ctavo": 4913,
      "ested": 4914,
      "ĠPr": 4915,
      "ĠHur": 4916,
      "ĠHold": 4917,
      "Ġmanif": 4918,
      "Ġalike": 4919,
      "Ġunex": 4920,
      "used": 4921,
      "ushing": 4922,
      "ĠNext": 4923,
      "Ġneigh": 4924,
      "Ġnearest": 4925,
      "ĠFishery": 4926,
      "unched": 4927,
      "Ġjam": 4928,
      "Ġjumped": 4929,
      "Ġexasper": 4930,
      "ooked": 4931,
      "inded": 4932,
      "ĠMed": 4933,
      "Ġplum": 4934,
      "Ġmoreover": 4935,
      "Ġblaz": 4936,
      "Ġprem": 4937,
      "Ġprevent": 4938,
      "Ġprelim": 4939,
      "ĠDu": 4940,
      "ĠLong": 4941,
      "ĠLima": 4942,
      "ĠĠĠ": 4943,
      "Ġworn": 4944,
      "Ġproble": 4945,
      "Ġprospect": 4946,
      "ĠGay": 4947,
      "Ġstrip": 4948,
      "Ġstranded": 4949,
      "Ġstripped": 4950,
      "Ġstricken": 4951,
      "Ġflour": 4952,
      "Ġtwice": 4953,
      "icks": 4954,
      "uded": 4955,
      "Ġanybody": 4956,
      "Ġcanst": 4957,
      "Ġcanoe": 4958,
      "Ġdownward": 4959,
      "Ġhandful": 4960,
      "lingly": 4961,
      "ndering": 4962,
      "ability": 4963,
      "Ġcoiled": 4964,
      "Ġcoils": 4965,
      "Ġhovering": 4966,
      "Ġbrit": 4967,
      "Ġbrim": 4968,
      "Ġbringing": 4969,
      "ĠOld": 4970,
      "ĠOri": 4971,
      "Ġthrowing": 4972,
      "Ġperch": 4973,
      "Ġgrinning": 4974,
      "Ġthank": 4975,
      "Ġenl": 4976,
      "Ġenjoy": 4977,
      "Ġcrooked": 4978,
      "Ġscorn": 4979,
      "Ġclosed": 4980,
      "ĠEven": 4981,
      "Ġsliding": 4982,
      "Ġsmallest": 4983,
      "Ġafternoon": 4984,
      "Ġmostly": 4985,
      "Ġglist": 4986,
      "Ġchair": 4987,
      "Ġadmit": 4988,
      "Ġindef": 4989,
      "Ġchim": 4990,
      "Ġcontem": 4991,
      "Ġremote": 4992,
      "Ġremoved": 4993,
      "Ġeverl": 4994,
      "Ġfold": 4995,
      "Ġsubterr": 4996,
      "Ġsteak": 4997,
      "Ġsteering": 4998,
      "Ġendure": 4999,
      "Ġskill": 5000,
      "Ġletters": 5001,
      "Ġarmed": 5002,
      "Ġtear": 5003,
      "Ġtechn": 5004,
      "ĠTherefore": 5005,
      "Ġpeep": 5006,
      "nee": 5007,
      "ĠNantucketers": 5008,
      "Ġappar": 5009,
      "Ġappalling": 5010,
      "box": 5011,
      "Ġsettle": 5012,
      "renched": 5013,
      "Ġelastic": 5014,
      "uffalo": 5015,
      "Ġreport": 5016,
      "Ġchange": 5017,
      "Ġchanged": 5018,
      "Ġstreet": 5019,
      "Ġmidst": 5020,
      "Ġpossession": 5021,
      "Ġuncertain": 5022,
      "Ġcorrect": 5023,
      "Ġmainmast": 5024,
      "ouncing": 5025,
      "Ġprofession": 5026,
      "Ġcharge": 5027,
      "Ġsquare": 5028,
      "Ġshortly": 5029,
      "Ġsupplied": 5030,
      "Ġsavages": 5031,
      "Ġsimply": 5032,
      "Ġstriving": 5033,
      "Ġdiscern": 5034,
      "Ġdiscover": 5035,
      "Ġmagic": 5036,
      "umbers": 5037,
      "Ġencoun": 5038,
      "Ġdepth": 5039,
      "Ġdepths": 5040,
      "Ġvert": 5041,
      "upon": 5042,
      "Ġserved": 5043,
      "Ġpitched": 5044,
      "agger": 5045,
      "Ġcarefully": 5046,
      "Ġheadsman": 5047,
      "Ġcruel": 5048,
      "ĠSeb": 5049,
      "Ġspirits": 5050,
      "Ġgazed": 5051,
      "Ġappeared": 5052,
      "Ġprior": 5053,
      "Ġfifteen": 5054,
      "encies": 5055,
      "Ġdivided": 5056,
      "Ġsteadfast": 5057,
      "Ġsummit": 5058,
      "ĠPerseus": 5059,
      "Ġpursued": 5060,
      "Ġleviathans": 5061,
      "Ġvaliant": 5062,
      "Ġmildly": 5063,
      "Ġnaturalists": 5064,
      "Ġequator": 5065,
      "Ġdriven": 5066,
      "endous": 5067,
      "Ġwalls": 5068,
      "Ġhunter": 5069,
      "Ġescaped": 5070,
      "ohog": 5071,
      "Stand": 5072,
      "Ġnarrative": 5073,
      "Ġlimbs": 5074,
      "Ġremaining": 5075,
      "Ġhints": 5076,
      "oresby": 5077,
      "Ġexperience": 5078,
      "Ġabsent": 5079,
      "Ġtreacher": 5080,
      "Ġboldly": 5081,
      "Ġpausing": 5082,
      "Ġswallow": 5083,
      "Ġcompasses": 5084,
      "Ġelephants": 5085,
      "Ġignorant": 5086,
      "Ġignorance": 5087,
      "Ġyesterday": 5088,
      "Ġvigil": 5089,
      "ĠGrand": 5090,
      "Ġpunch": 5091,
      "Ġcombined": 5092,
      "Ġcomfortable": 5093,
      "Ġapproaching": 5094,
      "Ġcontriv": 5095,
      "Ġsurprise": 5096,
      "Ġcentury": 5097,
      "Ġtremendous": 5098,
      "Ġderived": 5099,
      "Ġsullen": 5100,
      "Ġvital": 5101,
      "Ġclothes": 5102,
      "Ġoccurred": 5103,
      "Ġmurderous": 5104,
      "ĠJapanese": 5105,
      "burgh": 5106,
      "Ġfowls": 5107,
      "Ġcomrades": 5108,
      "Ġpapers": 5109,
      "Ġglimpse": 5110,
      "Ġimpressions": 5111,
      "rents": 5112,
      "Ġpadd": 5113,
      "Ġfeeding": 5114,
      "Ġobey": 5115,
      "Ġarticles": 5116,
      "Ġdestroyed": 5117,
      "Ġvelocity": 5118,
      "Ġberth": 5119,
      "Ġmortals": 5120,
      "Ġdilig": 5121,
      "Ġsuspic": 5122,
      "Ġorgan": 5123,
      "Ġjeopard": 5124,
      "Ġlandsmen": 5125,
      "ĠMoreover": 5126,
      "Ġintolerable": 5127,
      "Ġgradually": 5128,
      "Ġtaste": 5129,
      "Ġtiger": 5130,
      "Ġdireful": 5131,
      "Ġshuddering": 5132,
      "ĠDelight": 5133,
      "Ġclumsy": 5134,
      "Ġremotest": 5135,
      "Ġmaterial": 5136,
      "Ġvenerable": 5137,
      "ĠCommodore": 5138,
      "ĠGeorge": 5139,
      "Ġentitled": 5140,
      "Ġcuriosity": 5141,
      "Ġconsternation": 5142,
      "gallant": 5143,
      "Ġatmosp": 5144,
      "AL": 5145,
      "God": 5146,
      "Is": 5147,
      "Sp": 5148,
      "bell": 5149,
      "bye": 5150,
      "feed": 5151,
      "fold": 5152,
      "gg": 5153,
      "hum": 5154,
      "iard": 5155,
      "iers": 5156,
      "iance": 5157,
      "liness": 5158,
      "mber": 5159,
      "nal": 5160,
      "pers": 5161,
      "pipe": 5162,
      "sl": 5163,
      "son": 5164,
      "uled": 5165,
      "upp": 5166,
      "water": 5167,
      "Ġtit": 5168,
      "Ġtight": 5169,
      "hee": 5170,
      "Ġah": 5171,
      "Ġaver": 5172,
      "Ġable": 5173,
      "Ġapt": 5174,
      "Ġoak": 5175,
      "Ġwand": 5176,
      "Ġwest": 5177,
      "Ġwig": 5178,
      "Ġwool": 5179,
      "Ġwont": 5180,
      "Ġwilt": 5181,
      "Ġwounded": 5182,
      "reak": 5183,
      "Ġbask": 5184,
      "Ġbank": 5185,
      "ishes": 5186,
      "Ġmars": 5187,
      "Ġmiz": 5188,
      "Ġmason": 5189,
      "Ġmoored": 5190,
      "itch": 5191,
      "iterr": 5192,
      "ounce": 5193,
      "Ġcream": 5194,
      "Ġcaut": 5195,
      "Ġhy": 5196,
      "Ġhol": 5197,
      "orning": 5198,
      "Ġpip": 5199,
      "Ġpant": 5200,
      "Ġpist": 5201,
      "Ġpious": 5202,
      "Ġpity": 5203,
      "Ġpath": 5204,
      "Ġpaced": 5205,
      "Ġpacing": 5206,
      "Ġpaint": 5207,
      "Ġpowder": 5208,
      "Ġphys": 5209,
      "aned": 5210,
      "anes": 5211,
      "athered": 5212,
      "Ġlake": 5213,
      "Ġlash": 5214,
      "Ġlashed": 5215,
      "omon": 5216,
      "Ġthigh": 5217,
      "Ġhered": 5218,
      "Ġheel": 5219,
      "Ġhav": 5220,
      "Ġhaul": 5221,
      "lying": 5222,
      "Ġbeings": 5223,
      "Ġbelly": 5224,
      "Ġge": 5225,
      "Ġgently": 5226,
      "Ġgird": 5227,
      "Ġease": 5228,
      "icip": 5229,
      "Ġitem": 5230,
      "Ġult": 5231,
      "Ġstuck": 5232,
      "Ġstark": 5233,
      "Ġyarn": 5234,
      "ental": 5235,
      "Ġrows": 5236,
      "Ġrises": 5237,
      "Ġren": 5238,
      "Ġrejo": 5239,
      "ĠAgain": 5240,
      "ĠTypho": 5241,
      "ĠSec": 5242,
      "Ġwel": 5243,
      "Ġweeks": 5244,
      "iloqu": 5245,
      "Ġanon": 5246,
      "Ġanatom": 5247,
      "Ġsust": 5248,
      "ify": 5249,
      "ĠBul": 5250,
      "astian": 5251,
      "alloa": 5252,
      "apsed": 5253,
      "ulate": 5254,
      "ulting": 5255,
      "Ġvest": 5256,
      "Ġspent": 5257,
      "Ġboom": 5258,
      "arts": 5259,
      "Ġconne": 5260,
      "esty": 5261,
      "ĠPeter": 5262,
      "ĠPhil": 5263,
      "ĠHy": 5264,
      "ĠHim": 5265,
      "ĠHence": 5266,
      "ostr": 5267,
      "Ġintently": 5268,
      "Ġintended": 5269,
      "usk": 5270,
      "usions": 5271,
      "ĠNorth": 5272,
      "Ġcommen": 5273,
      "Ġkicked": 5274,
      "ĠStr": 5275,
      "Ġjets": 5276,
      "Ġyea": 5277,
      "ooks": 5278,
      "ĠMid": 5279,
      "ĠMount": 5280,
      "ĠMapple": 5281,
      "Ġagg": 5282,
      "Ġabund": 5283,
      "ishn": 5284,
      "abled": 5285,
      "urely": 5286,
      "Ġdoll": 5287,
      "Ġblast": 5288,
      "iousness": 5289,
      "ineyard": 5290,
      "ĠDr": 5291,
      "ivity": 5292,
      "Ġseemingly": 5293,
      "Ġtrad": 5294,
      "Ġtrump": 5295,
      "ivered": 5296,
      "ieur": 5297,
      "Ġstrained": 5298,
      "Ġstruct": 5299,
      "Ġstrugg": 5300,
      "ept": 5301,
      "Ġswept": 5302,
      "Ġharbor": 5303,
      "Ġflash": 5304,
      "Ġflung": 5305,
      "Ġtwisted": 5306,
      "uding": 5307,
      "Ġheading": 5308,
      "Ġcoin": 5309,
      "Ġcovered": 5310,
      "Ġwatches": 5311,
      "Ġbrid": 5312,
      "Ġroaring": 5313,
      "Ġropes": 5314,
      "Ġusual": 5315,
      "Ġgrowing": 5316,
      "Ġparty": 5317,
      "Ġparticul": 5318,
      "Ġcrotch": 5319,
      "Ġscore": 5320,
      "Ġscream": 5321,
      "Ġscenes": 5322,
      "Ġclust": 5323,
      "Ġhereafter": 5324,
      "ĠEqu": 5325,
      "ĠEast": 5326,
      "ĠEnder": 5327,
      "ĠHeidel": 5328,
      "Ġyours": 5329,
      "arbor": 5330,
      "Ġcompared": 5331,
      "Ġdaylight": 5332,
      "Ġadequ": 5333,
      "Ġdisord": 5334,
      "ĠJav": 5335,
      "ĠJove": 5336,
      "Ġthroughout": 5337,
      "then": 5338,
      "Ġloss": 5339,
      "Ġobst": 5340,
      "Ġobsc": 5341,
      "onsieur": 5342,
      "Ġkeels": 5343,
      "angled": 5344,
      "Ġbackward": 5345,
      "tend": 5346,
      "Ġsubstant": 5347,
      "Ġsteer": 5348,
      "Ġsteam": 5349,
      "Ġsteers": 5350,
      "Ġsteep": 5351,
      "Ġaccord": 5352,
      "Ġreserved": 5353,
      "Ġsheets": 5354,
      "Ġopened": 5355,
      "Ġskies": 5356,
      "Ġ16": 5357,
      "Ġbodies": 5358,
      "Ġlights": 5359,
      "Ġinterl": 5360,
      "Ġsurm": 5361,
      "Ġincor": 5362,
      "Ġincess": 5363,
      "Ġspend": 5364,
      "Ġspeech": 5365,
      "Ġinscr": 5366,
      "Ġsleeper": 5367,
      "Ġbeget": 5368,
      "Ġirreg": 5369,
      "soever": 5370,
      "Ġapplic": 5371,
      "Ġlarger": 5372,
      "ĠVineyard": 5373,
      "Ġcheese": 5374,
      "Ġwildly": 5375,
      "Ġfury": 5376,
      ",âĢĶâĢľ": 5377,
      "Ġhate": 5378,
      "Ġhatches": 5379,
      "Ġattention": 5380,
      "Ġbowed": 5381,
      "Ġplaint": 5382,
      "Ġaction": 5383,
      "Ġactivity": 5384,
      "Ġfloat": 5385,
      "Ġsingular": 5386,
      "Ġreasonable": 5387,
      "Ġjoin": 5388,
      "Ġaffright": 5389,
      "Ġmouths": 5390,
      "Ġsupernatural": 5391,
      "Ġmiser": 5392,
      "Ġspecific": 5393,
      "Ġwoods": 5394,
      "Ġsmooth": 5395,
      "Ġfinds": 5396,
      "Ġdiscovered": 5397,
      "Ġportent": 5398,
      "Ġconfess": 5399,
      "Ġdirections": 5400,
      "Ġserious": 5401,
      "Ġneedle": 5402,
      "Ġneedles": 5403,
      "Ġmerry": 5404,
      "Ġrelieved": 5405,
      "Ġawa": 5406,
      "Ġhappen": 5407,
      "Ġtemper": 5408,
      "Ġaccounts": 5409,
      "Ġaccounted": 5410,
      "Ġgrounds": 5411,
      "Ġcontrasting": 5412,
      "Ġeasily": 5413,
      "ĠNothing": 5414,
      "Ġproport": 5415,
      "Ġproperly": 5416,
      "ĠArch": 5417,
      "Ġtribe": 5418,
      "ological": 5419,
      "Ġdimin": 5420,
      "Ġdimly": 5421,
      "Ġsoftly": 5422,
      "Ġtower": 5423,
      "Ġdetached": 5424,
      "ĠSpanish": 5425,
      "Ġfurnish": 5426,
      "Ġmistake": 5427,
      "Ġdriving": 5428,
      "ĠQuohog": 5429,
      "Ġhurried": 5430,
      "Ġrevere": 5431,
      "Ġblinds": 5432,
      "aults": 5433,
      "Ġconsiderably": 5434,
      "Ġborne": 5435,
      "Ġmalicious": 5436,
      "Ġlevelled": 5437,
      "Ġlaug": 5438,
      "Ġoccasional": 5439,
      "Ġpolite": 5440,
      "Ġinvolved": 5441,
      "Ġmercy": 5442,
      "Ġtrees": 5443,
      "Ġmilky": 5444,
      "Ġexclam": 5445,
      "Ġcannibals": 5446,
      "Ġextremity": 5447,
      "Ġpleased": 5448,
      "Ġmystical": 5449,
      "Ġdescending": 5450,
      "Ġembark": 5451,
      "Ġtackle": 5452,
      "Ġforgotten": 5453,
      "Ġthrusting": 5454,
      "ĠPlat": 5455,
      "Ġtubs": 5456,
      "Ġheathen": 5457,
      "Ġfrozen": 5458,
      "Ġmystery": 5459,
      "Ġexpression": 5460,
      "Ġbreadth": 5461,
      "ĠSeeing": 5462,
      "Ġexcited": 5463,
      "Ġprivile": 5464,
      "Ġtongs": 5465,
      "Ġvigorous": 5466,
      "Ġpopular": 5467,
      "Ġviolently": 5468,
      "Ġmember": 5469,
      "Ġperfect": 5470,
      "Ġbrawn": 5471,
      "Ġgaining": 5472,
      "ĠScoresby": 5473,
      "Ġimperial": 5474,
      "Ġstretched": 5475,
      "cription": 5476,
      "Ġmovement": 5477,
      "Ġtemporarily": 5478,
      "Ġrevolving": 5479,
      "Ġfowl": 5480,
      "Ġcherish": 5481,
      "Ġcomrade": 5482,
      "Ġsensible": 5483,
      "Ġfetch": 5484,
      "Ġinclined": 5485,
      "Ġprojecting": 5486,
      "Ġinfluence": 5487,
      "veloped": 5488,
      "Ġcounterp": 5489,
      "Ġpirates": 5490,
      "achelor": 5491,
      "Ġincredible": 5492,
      "Ġlifting": 5493,
      "Ġpressed": 5494,
      "ĠVoyage": 5495,
      "Ġoccupied": 5496,
      "Ġtransparent": 5497,
      "Ġphilosopher": 5498,
      "Ġfancied": 5499,
      "Ġsucceeded": 5500,
      "Ġaccursed": 5501,
      "Ġsufficiently": 5502,
      "Ġlodged": 5503,
      "Ġoblig": 5504,
      "Ġrecognised": 5505,
      "Ġconfidential": 5506,
      "Ġtumultuous": 5507,
      "Ġgrief": 5508,
      "ĠSamuel": 5509,
      "Ġanxious": 5510,
      "Ġapparently": 5511,
      "Ġmuffled": 5512,
      "Ġstubborn": 5513,
      "ĠCarpenter": 5514,
      "Ġunspeakable": 5515,
      "Ġscattered": 5516,
      "Ġtraveller": 5517,
      "Ġrevenge": 5518,
      "Ġleagues": 5519,
      "Ġplunged": 5520,
      "Ġindependent": 5521,
      "Ġhomage": 5522,
      "Ġsparkling": 5523,
      "ĠMediterr": 5524,
      "Ġchimney": 5525,
      "Ġeverlasting": 5526,
      "Ġapparition": 5527,
      "ĠSebastian": 5528,
      "Ġwigw": 5529,
      "Ġparticulars": 5530,
      "ĠHeidelburgh": 5531,
      "ĠMediterranean": 5532,
      "AR": 5533,
      "Al": 5534,
      "Back": 5535,
      "CK": 5536,
      "CT": 5537,
      "Cook": 5538,
      "For": 5539,
      "Give": 5540,
      "bes": 5541,
      "band": 5542,
      "bered": 5543,
      "bors": 5544,
      "cent": 5545,
      "ciously": 5546,
      "down": 5547,
      "eur": 5548,
      "four": 5549,
      "gar": 5550,
      "gent": 5551,
      "hor": 5552,
      "ius": 5553,
      "iences": 5554,
      "just": 5555,
      "lin": 5556,
      "lime": 5557,
      "mm": 5558,
      "master": 5559,
      "ners": 5560,
      "nett": 5561,
      "oly": 5562,
      "off": 5563,
      "por": 5564,
      "pot": 5565,
      "pol": 5566,
      "sac": 5567,
      "sue": 5568,
      "snee": 5569,
      "ties": 5570,
      "time": 5571,
      "uge": 5572,
      "uation": 5573,
      "ules": 5574,
      "ucing": 5575,
      "wed": 5576,
      "xic": 5577,
      "Ġting": 5578,
      "Ġtid": 5579,
      "Ġtick": 5580,
      "Ġtaff": 5581,
      "hec": 5582,
      "Ġavast": 5583,
      "inent": 5584,
      "inating": 5585,
      "Ġsor": 5586,
      "Ġsouth": 5587,
      "Ġsidel": 5588,
      "Ġopp": 5589,
      "Ġwes": 5590,
      "Ġwarn": 5591,
      "Ġwakes": 5592,
      "Ġwalk": 5593,
      "Ġworthy": 5594,
      "Ġwretched": 5595,
      "resh": 5596,
      "handed": 5597,
      "erred": 5598,
      "Ġban": 5599,
      "Ġbits": 5600,
      "Ġbump": 5601,
      "Ġbarr": 5602,
      "lex": 5603,
      "itters": 5604,
      "itably": 5605,
      "outer": 5606,
      "Ġcav": 5607,
      "Ġcere": 5608,
      "enet": 5609,
      "Ġinhab": 5610,
      "Ġhier": 5611,
      "Ġhills": 5612,
      "Ġpine": 5613,
      "Ġpere": 5614,
      "Ġpaid": 5615,
      "Ġpuzz": 5616,
      "Ġdol": 5617,
      "Ġdive": 5618,
      "Ġdaring": 5619,
      "Ġdancing": 5620,
      "anct": 5621,
      "atra": 5622,
      "ators": 5623,
      "Ġlaz": 5624,
      "Ġlashing": 5625,
      "Ġlarboard": 5626,
      "Ġnostr": 5627,
      "omb": 5628,
      "owd": 5629,
      "owards": 5630,
      "Ġhey": 5631,
      "utions": 5632,
      "Ġhaven": 5633,
      "Ġhaunt": 5634,
      "Ġhabit": 5635,
      "Ġhauled": 5636,
      "lyph": 5637,
      "Ġbeer": 5638,
      "Ġgam": 5639,
      "Ġgather": 5640,
      "Ġgathered": 5641,
      "secut": 5642,
      "Ġur": 5643,
      "otions": 5644,
      "Ġstun": 5645,
      "Ġyon": 5646,
      "Ġyaw": 5647,
      "Ġsell": 5648,
      "Ġsending": 5649,
      "Ġseize": 5650,
      "irts": 5651,
      "acon": 5652,
      "Ġwhip": 5653,
      "Ġrad": 5654,
      "Ġrowing": 5655,
      "Ġrasc": 5656,
      "urg": 5657,
      "urre": 5658,
      "Ġisle": 5659,
      "Ġissued": 5660,
      "Ġreli": 5661,
      "Ġrepl": 5662,
      "Ġreef": 5663,
      "âĢĶâĢĺ": 5664,
      "ĠAre": 5665,
      "ĠTars": 5666,
      "ĠTime": 5667,
      "ĠTowards": 5668,
      "ĠSh": 5669,
      "ĠSum": 5670,
      "ĠSomet": 5671,
      "ĠSleet": 5672,
      "keep": 5673,
      "cep": 5674,
      "Ġweigh": 5675,
      "Ġshirt": 5676,
      "amm": 5677,
      "amped": 5678,
      "Ġsold": 5679,
      "Ġsober": 5680,
      "Ġwhalebone": 5681,
      "Ġsug": 5682,
      "ĠBachelor": 5683,
      "allers": 5684,
      "ĠWoe": 5685,
      "ulpt": 5686,
      "ĠCr": 5687,
      "Ġmead": 5688,
      "Ġspilled": 5689,
      "Ġspinal": 5690,
      "ements": 5691,
      "emorial": 5692,
      "ĠPers": 5693,
      "ĠProp": 5694,
      "ĠPagan": 5695,
      "ĠHand": 5696,
      "Ġmanag": 5697,
      "Ġalas": 5698,
      "Ġaltern": 5699,
      "Ġalarm": 5700,
      "umber": 5701,
      "Ġunn": 5702,
      "Ġunman": 5703,
      "Ġunob": 5704,
      "Ġunnatural": 5705,
      "Ġintric": 5706,
      "Ġintention": 5707,
      "igr": 5708,
      "usive": 5709,
      "ĠNature": 5710,
      "orts": 5711,
      "akened": 5712,
      "ĠStart": 5713,
      "ĠStra": 5714,
      "Ġjew": 5715,
      "Ġexam": 5716,
      "Ġexec": 5717,
      "ooded": 5718,
      "rail": 5719,
      "Ġthence": 5720,
      "Ġfeather": 5721,
      "olute": 5722,
      "inding": 5723,
      "ĠMart": 5724,
      "ĠMass": 5725,
      "ĠMace": 5726,
      "ĠMark": 5727,
      "Ġagon": 5728,
      "Ġagent": 5729,
      "Ġplung": 5730,
      "Ġplane": 5731,
      "Ġdoct": 5732,
      "Ġblade": 5733,
      "Ġblasted": 5734,
      "Ġpref": 5735,
      "ĠDes": 5736,
      "ĠDid": 5737,
      "ucks": 5738,
      "ival": 5739,
      "Ġpoles": 5740,
      "Ġpockets": 5741,
      "Ġseeming": 5742,
      "Ġworked": 5743,
      "ieve": 5744,
      "Ġwouldn": 5745,
      "Ġknee": 5746,
      "Ġknees": 5747,
      "Ġswings": 5748,
      "Ġflow": 5749,
      "Ġarched": 5750,
      "Ġqual": 5751,
      "udder": 5752,
      "Ġshaking": 5753,
      "Ġheaded": 5754,
      "Ġhoist": 5755,
      "Ġbrown": 5756,
      "Ġbrains": 5757,
      "ĠOut": 5758,
      "ĠOur": 5759,
      "Ġthrone": 5760,
      "Ġthrice": 5761,
      "Ġperched": 5762,
      "Ġamount": 5763,
      "Ġgrace": 5764,
      "Ġparted": 5765,
      "Ġoffer": 5766,
      "Ġoffice": 5767,
      "Ġsculpt": 5768,
      "HALE": 5769,
      "ĠEvery": 5770,
      "Ġslide": 5771,
      "Ġslave": 5772,
      "Ġslipped": 5773,
      "ĠHead": 5774,
      "Ġdidst": 5775,
      "ĠThose": 5776,
      "ĠThink": 5777,
      "Ġadr": 5778,
      "ĠInn": 5779,
      "Ġpron": 5780,
      "Ġpride": 5781,
      "ĠJust": 5782,
      "ĠJopp": 5783,
      "Ġwhereby": 5784,
      "ailing": 5785,
      "ecess": 5786,
      "Ġindolent": 5787,
      "Ġcouldn": 5788,
      "clusion": 5789,
      "Ġobedience": 5790,
      "ibility": 5791,
      "Ġfolded": 5792,
      "angel": 5793,
      "Ġdesol": 5794,
      "Ġdesire": 5795,
      "Ġdesert": 5796,
      "Ġmatch": 5797,
      "Ġconspic": 5798,
      "oglyph": 5799,
      "Ġcarc": 5800,
      "Ġentry": 5801,
      "aws": 5802,
      "Ġpresumed": 5803,
      "Ġsubmer": 5804,
      "Ġsublime": 5805,
      "Ġsteered": 5806,
      "landish": 5807,
      "Ġresc": 5808,
      "Ġsheep": 5809,
      "ension": 5810,
      "ensive": 5811,
      "Ġlandsman": 5812,
      "Ġsunset": 5813,
      "Ġforemost": 5814,
      "Ġforeign": 5815,
      "Ġtells": 5816,
      "Ġhearth": 5817,
      "Ġhearty": 5818,
      "Ġlowly": 5819,
      "kington": 5820,
      "ashioned": 5821,
      "Ġhandsp": 5822,
      "azz": 5823,
      "Ġinfidel": 5824,
      "Ġinfernal": 5825,
      "Ġemp": 5826,
      "soci": 5827,
      "Ġpeering": 5828,
      "ificial": 5829,
      "holes": 5830,
      "Ġhardy": 5831,
      "Ġsnapped": 5832,
      "Ġwrong": 5833,
      "Ġwrapped": 5834,
      "ĠVishn": 5835,
      "Ġruns": 5836,
      "Ġchances": 5837,
      "Ġreading": 5838,
      "Ġbreast": 5839,
      "Ġdraught": 5840,
      "Ġlayer": 5841,
      "Ġsleepy": 5842,
      "Ġactive": 5843,
      "Ġwarning": 5844,
      "Ġseasons": 5845,
      "Ġlargely": 5846,
      "Ġkeeps": 5847,
      "Ġsounded": 5848,
      "Ġbestowed": 5849,
      "Ġjoke": 5850,
      "Ġaffection": 5851,
      "ĠNoah": 5852,
      "Ġfourth": 5853,
      "Ġexpand": 5854,
      "Ġprofess": 5855,
      "Ġcharm": 5856,
      "bute": 5857,
      "ruction": 5858,
      "Ġlady": 5859,
      "Ġsquares": 5860,
      "Ġmiserable": 5861,
      "spade": 5862,
      "Ġdevilish": 5863,
      "Ġspecim": 5864,
      "ĠChina": 5865,
      "Ġelements": 5866,
      "Ġcolt": 5867,
      "Ġdiscovery": 5868,
      "Ġwants": 5869,
      "Ġwanted": 5870,
      "Ġbowsman": 5871,
      "Ġbowspr": 5872,
      "Ġaddress": 5873,
      "upper": 5874,
      "Ġsymp": 5875,
      "Ġsympt": 5876,
      "Ġfearless": 5877,
      "Ġhundreds": 5878,
      "Ġswims": 5879,
      "Ġordered": 5880,
      "Ġawake": 5881,
      "Ġhappy": 5882,
      "Ġgrandeur": 5883,
      "Ġmountains": 5884,
      "Ġmasses": 5885,
      "Ġfluid": 5886,
      "ĠAlmost": 5887,
      "Ġhunting": 5888,
      "Ġrocking": 5889,
      "Ġobserving": 5890,
      "brÃ¦": 5891,
      "Ġhammered": 5892,
      "Ġdivine": 5893,
      "Ġstarting": 5894,
      "Ġreceive": 5895,
      "ĠArsac": 5896,
      "Ġcryst": 5897,
      "Ġraise": 5898,
      "Ġhopeless": 5899,
      "Ġtowed": 5900,
      "Ġequally": 5901,
      "Ġrespects": 5902,
      "ĠAny": 5903,
      "Ġmistaken": 5904,
      "Ġstorms": 5905,
      "Ġbelongs": 5906,
      "Ġbelonging": 5907,
      "Ġuntil": 5908,
      "Ġsnowy": 5909,
      "Ġblew": 5910,
      "Ġshoal": 5911,
      "Ġviciss": 5912,
      "Ġconclude": 5913,
      "Ġproceeds": 5914,
      "Ġconsideration": 5915,
      "Starbuck": 5916,
      "Ġillum": 5917,
      "Ġmusc": 5918,
      "Ġangels": 5919,
      "Ġanguish": 5920,
      "Ġeventually": 5921,
      "Ġ27": 5922,
      "Ġdreams": 5923,
      "Ġlurks": 5924,
      "Ġlurked": 5925,
      "Ġdemand": 5926,
      "ĠWherefore": 5927,
      "Ġgallant": 5928,
      "Ġdistinctly": 5929,
      "Ġhonorable": 5930,
      "Ġhighest": 5931,
      "Ġstrove": 5932,
      "Ġwalking": 5933,
      "Ġeagerly": 5934,
      "Ġeagerness": 5935,
      "Ġwhisper": 5936,
      "Ġinteresting": 5937,
      "....": 5938,
      "Ġglasses": 5939,
      "Ġgunwales": 5940,
      "ĠPliny": 5941,
      "Ġmotionless": 5942,
      "Ġdeliver": 5943,
      "Ġmeasureless": 5944,
      "Ġperceive": 5945,
      "Ġwrecked": 5946,
      "Ġincluding": 5947,
      "Ġpopularly": 5948,
      "Ġestab": 5949,
      "Ġcandles": 5950,
      "Ġgirls": 5951,
      "Ġshrouds": 5952,
      "Ġauthority": 5953,
      "Ġoperation": 5954,
      "Ġphantoms": 5955,
      "Ġconcerned": 5956,
      "Ġsolemnly": 5957,
      "Ġmedit": 5958,
      "Ġcomparatively": 5959,
      "chers": 5960,
      "Ġhorns": 5961,
      "Ġbellies": 5962,
      "ĠShall": 5963,
      "Ġvitality": 5964,
      "Ġjudgment": 5965,
      "Ġscarcely": 5966,
      "Ġrumors": 5967,
      "Ġmonsters": 5968,
      "Ġperpendicularly": 5969,
      "Ġpanic": 5970,
      "Ġpotent": 5971,
      "Ġmoonlight": 5972,
      "asmuch": 5973,
      "Ġwithdrawing": 5974,
      "Ġranged": 5975,
      "ĠAmong": 5976,
      "ĠMayhew": 5977,
      "Ġsurrounded": 5978,
      "Ġtattooed": 5979,
      "Ġpublished": 5980,
      "Ġbeauty": 5981,
      "Ġbeautiful": 5982,
      "Ġstopping": 5983,
      "Ġstopped": 5984,
      "Ġweapon": 5985,
      "Ġweapons": 5986,
      "Ġprinciple": 5987,
      "Ġsnatching": 5988,
      "Ġhatchway": 5989,
      "Ġsatisf": 5990,
      "Ġsatisfact": 5991,
      "ĠZeal": 5992,
      "Ġbubbles": 5993,
      "Ġbaby": 5994,
      "Ġmelanch": 5995,
      "Ġmechanically": 5996,
      "Ġsacred": 5997,
      "Ġintensity": 5998,
      "Ġmarvels": 5999,
      "ĠAfrica": 6000,
      "matical": 6001,
      "Ġfalse": 6002,
      "Ġuniversal": 6003,
      "Ġabandoned": 6004,
      "Ġirresist": 6005,
      "Ġreligion": 6006,
      "Ġdescribed": 6007,
      "Ġhistorical": 6008,
      "Ġclinging": 6009,
      "Ġhouses": 6010,
      "Ġexhib": 6011,
      "Ġprogress": 6012,
      "ĠGreek": 6013,
      "ĠEmper": 6014,
      "Ġslipper": 6015,
      "Ġcommunic": 6016,
      "Ġdaily": 6017,
      "ĠSolomon": 6018,
      "ĠConsider": 6019,
      "Ġcloser": 6020,
      "Ġglittering": 6021,
      "ĠvertebrÃ¦": 6022,
      "Ġobliquely": 6023,
      "Ġbiscuit": 6024,
      "Ġfavour": 6025,
      "ĠTemple": 6026,
      "ĠHurrah": 6027,
      "Ġpreliminary": 6028,
      "ĠDuke": 6029,
      "Ġcontrivances": 6030,
      "Ġpipes": 6031,
      "Ġpistol": 6032,
      "Ġconnexion": 6033,
      "ĠEquator": 6034,
      "ĠEnderby": 6035,
      "Ġinscrutable": 6036,
      "Ġportentous": 6037,
      "Ġwigwam": 6038,
      "sneezes": 6039,
      "Ġtaffrail": 6040,
      "Ġhieroglyph": 6041,
      "ĠMacey": 6042,
      "ĠJoppa": 6043,
      "Ġsubmerged": 6044,
      "Ġbowsprit": 6045,
      "ĠZealand": 6046,
      "Ġmelancholy": 6047,
      ".,": 6048,
      "50": 6049,
      "Can": 6050,
      "EE": 6051,
      "EL": 6052,
      "ET": 6053,
      "Folio": 6054,
      "Good": 6055,
      "Hast": 6056,
      "Here": 6057,
      "If": 6058,
      "Land": 6059,
      "MO": 6060,
      "Octavo": 6061,
      "Pull": 6062,
      "Qu": 6063,
      "Ste": 6064,
      "Tis": 6065,
      "Take": 6066,
      "Then": 6067,
      "Up": 6068,
      "ault": 6069,
      "bing": 6070,
      "ball": 6071,
      "bling": 6072,
      "born": 6073,
      "bones": 6074,
      "dom": 6075,
      "dam": 6076,
      "ev": 6077,
      "een": 6078,
      "east": 6079,
      "fit": 6080,
      "fted": 6081,
      "fashioned": 6082,
      "hish": 6083,
      "iate": 6084,
      "iogn": 6085,
      "ihil": 6086,
      "ko": 6087,
      "lor": 6088,
      "lies": 6089,
      "lock": 6090,
      "nut": 6091,
      "nest": 6092,
      "oving": 6093,
      "pre": 6094,
      "pel": 6095,
      "raged": 6096,
      "rayed": 6097,
      "sal": 6098,
      "squ": 6099,
      "some": 6100,
      "skin": 6101,
      "tic": 6102,
      "ufact": 6103,
      "vable": 6104,
      "wen": 6105,
      "wat": 6106,
      "wreck": 6107,
      "yl": 6108,
      "yspe": 6109,
      "Ġing": 6110,
      "Ġtons": 6111,
      "Ġav": 6112,
      "Ġaut": 6113,
      "inch": 6114,
      "Ġsong": 6115,
      "Ġsine": 6116,
      "Ġsanct": 6117,
      "Ġost": 6118,
      "Ġomen": 6119,
      "Ġwings": 6120,
      "Ġwoof": 6121,
      "Ġwilful": 6122,
      "reet": 6123,
      "nds": 6124,
      "ndered": 6125,
      "eral": 6126,
      "erity": 6127,
      "Ġbas": 6128,
      "Ġbay": 6129,
      "Ġbunch": 6130,
      "lead": 6131,
      "leep": 6132,
      "Ġmak": 6133,
      "Ġmile": 6134,
      "Ġmock": 6135,
      "Ġmob": 6136,
      "Ġmale": 6137,
      "iture": 6138,
      "itted": 6139,
      "Ġfest": 6140,
      "Ġfab": 6141,
      "Ġfib": 6142,
      "Ġfres": 6143,
      "Ġcet": 6144,
      "Ġcost": 6145,
      "Ġcub": 6146,
      "Ġcaul": 6147,
      "enial": 6148,
      "Ġinse": 6149,
      "Ġinland": 6150,
      "Ġinasmuch": 6151,
      "Ġhooded": 6152,
      "orough": 6153,
      "orus": 6154,
      "arance": 6155,
      "arman": 6156,
      "arian": 6157,
      "lla": 6158,
      "llows": 6159,
      "Ġtops": 6160,
      "Ġped": 6161,
      "Ġpor": 6162,
      "Ġpag": 6163,
      "Ġpack": 6164,
      "Ġpile": 6165,
      "Ġpiv": 6166,
      "Ġpace": 6167,
      "Ġpage": 6168,
      "Ġpause": 6169,
      "Ġpike": 6170,
      "Ġdu": 6171,
      "Ġdum": 6172,
      "Ġdue": 6173,
      "Ġdull": 6174,
      "Ġdried": 6175,
      "Ġdash": 6176,
      "Ġdiver": 6177,
      "Ġdashing": 6178,
      "Ġdressed": 6179,
      "Ġdiam": 6180,
      "Ġdyspe": 6181,
      "anning": 6182,
      "athed": 6183,
      "asters": 6184,
      "Ġlose": 6185,
      "Ġlust": 6186,
      "Ġlbs": 6187,
      "Ġnap": 6188,
      "Ġnest": 6189,
      "omach": 6190,
      "omantic": 6191,
      "Ġthorough": 6192,
      "Ġhem": 6193,
      "Ġhal": 6194,
      "Ġhap": 6195,
      "Ġhaw": 6196,
      "Ġhailing": 6197,
      "Ġgate": 6198,
      "Ġgames": 6199,
      "Ġgorge": 6200,
      "iments": 6201,
      "ĠIce": 6202,
      "icted": 6203,
      "Ġum": 6204,
      "ott": 6205,
      "Ġsty": 6206,
      "Ġstave": 6207,
      "Ġstayed": 6208,
      "Ġstories": 6209,
      "Ġstomach": 6210,
      "alle": 6211,
      "idity": 6212,
      "idents": 6213,
      "Ġseal": 6214,
      "Ġseals": 6215,
      "Ġseren": 6216,
      "Ġsearch": 6217,
      "aco": 6218,
      "adoes": 6219,
      "etent": 6220,
      "entat": 6221,
      "Ġassoci": 6222,
      "Ġrout": 6223,
      "Ġrubb": 6224,
      "Ġrude": 6225,
      "Ġromantic": 6226,
      "Ġforbe": 6227,
      "urable": 6228,
      "Ġretain": 6229,
      "ainted": 6230,
      "ĠSm": 6231,
      "ĠSn": 6232,
      "ĠSub": 6233,
      "ĠSouthern": 6234,
      "ooves": 6235,
      "Ġallusions": 6236,
      "Ġwears": 6237,
      "Ġweaving": 6238,
      "ili": 6239,
      "ilities": 6240,
      "ionable": 6241,
      "Ġano": 6242,
      "Ġanvil": 6243,
      "ights": 6244,
      "Ġshows": 6245,
      "Ġshores": 6246,
      "Ġshuttle": 6247,
      "Ġshudder": 6248,
      "amn": 6249,
      "Ġsocket": 6250,
      "Ġsuit": 6251,
      "Ġsult": 6252,
      "quity": 6253,
      "ifting": 6254,
      "ĠBo": 6255,
      "ĠBel": 6256,
      "iller": 6257,
      "rolling": 6258,
      "rolled": 6259,
      "ander": 6260,
      "Ġbutton": 6261,
      "Ġdepend": 6262,
      "Ġlest": 6263,
      "Ġlege": 6264,
      "apes": 6265,
      "uls": 6266,
      "ulations": 6267,
      "Ġvan": 6268,
      "Ġvind": 6269,
      "Ġviv": 6270,
      "Ġspasm": 6271,
      "Ġliber": 6272,
      "Ġcontaining": 6273,
      "rian": 6274,
      "riend": 6275,
      "ĠPat": 6276,
      "ĠHind": 6277,
      "ĠHave": 6278,
      "ĠHerc": 6279,
      "Ġalbatross": 6280,
      "Ġunim": 6281,
      "Ġunlike": 6282,
      "Ġunhar": 6283,
      "Ġintel": 6284,
      "Ġintrod": 6285,
      "ĠNay": 6286,
      "ĠNight": 6287,
      "ĠNarwhale": 6288,
      "Ġcomment": 6289,
      "orting": 6290,
      "Ġoutlandish": 6291,
      "unity": 6292,
      "ustr": 6293,
      "Ġfeast": 6294,
      "olic": 6295,
      "inder": 6296,
      "ĠMary": 6297,
      "ĠMeth": 6298,
      "ĠMonsieur": 6299,
      "Ġagony": 6300,
      "thr": 6301,
      "thou": 6302,
      "Ġplates": 6303,
      "Ġabounding": 6304,
      "ishop": 6305,
      "Ġovert": 6306,
      "Ġprepar": 6307,
      "Ġpretend": 6308,
      "pole": 6309,
      "point": 6310,
      "ĠDay": 6311,
      "ĠDown": 6312,
      "ĠDoes": 6313,
      "ĠDuring": 6314,
      "ucked": 6315,
      "Ġpoison": 6316,
      "Ġtimber": 6317,
      "Ġafore": 6318,
      "avig": 6319,
      "ĠGive": 6320,
      "Ġkneel": 6321,
      "Ġstring": 6322,
      "Ġswore": 6323,
      "Ġflinging": 6324,
      "Ġflanks": 6325,
      "Ġgover": 6326,
      "Ġquality": 6327,
      "asses": 6328,
      "Ġshade": 6329,
      "Ġshavings": 6330,
      "Ġshaggy": 6331,
      "Ġherself": 6332,
      "Ġheadlong": 6333,
      "abs": 6334,
      "abouts": 6335,
      "Ġcoiling": 6336,
      "ĠAndes": 6337,
      "Ġbrute": 6338,
      "Ġuses": 6339,
      "Ġenem": 6340,
      "Ġenergy": 6341,
      "Ġcrushed": 6342,
      "Ġcracked": 6343,
      "Ġclaim": 6344,
      "Ġhereby": 6345,
      "Ġslop": 6346,
      "Ġslouched": 6347,
      "Ġsmack": 6348,
      "ordinary": 6349,
      "Ġyourselves": 6350,
      "Ġglances": 6351,
      "Ġcompare": 6352,
      "Ġchasing": 6353,
      "ĠThy": 6354,
      "Ġeverywhere": 6355,
      "Ġeverybody": 6356,
      "ĠInst": 6357,
      "Ġdisg": 6358,
      "Ġdiss": 6359,
      "Ġdispl": 6360,
      "ĠRem": 6361,
      "ĠRachel": 6362,
      "Ġprime": 6363,
      "Ġwherein": 6364,
      "Ġindic": 6365,
      "Ġinduce": 6366,
      "ecting": 6367,
      "Ġloving": 6368,
      "Ġchron": 6369,
      "Ġcontents": 6370,
      "rying": 6371,
      "Ġobtained": 6372,
      "Ġfond": 6373,
      "Ġdescription": 6374,
      "intered": 6375,
      "Ġconscient": 6376,
      "ogs": 6377,
      "ogged": 6378,
      "ograp": 6379,
      "Ġcarpet": 6380,
      "ĠYarman": 6381,
      "Ġworlds": 6382,
      "ermon": 6383,
      "Ġsubs": 6384,
      "Ġdripping": 6385,
      "Ġdrooping": 6386,
      "Ġdrugged": 6387,
      "lands": 6388,
      "Ġhug": 6389,
      "Ġsunk": 6390,
      "Ġforemast": 6391,
      "Ġcasual": 6392,
      "Ġlightly": 6393,
      "Ġinvo": 6394,
      "plicable": 6395,
      "Ġincarn": 6396,
      "Ġincomp": 6397,
      "Ġcurling": 6398,
      "Ġcurrents": 6399,
      "Ġteach": 6400,
      "Ġtext": 6401,
      "Ġheavily": 6402,
      "eware": 6403,
      "Ġsecre": 6404,
      "Ġsecuring": 6405,
      "Ġholds": 6406,
      "Ġpresents": 6407,
      "Ġpurse": 6408,
      "ification": 6409,
      "Ġhumorous": 6410,
      "Ġapplied": 6411,
      "Ġsnap": 6412,
      "boats": 6413,
      "Ġhighly": 6414,
      "Ġcheek": 6415,
      "Ġcheeks": 6416,
      "venth": 6417,
      "Ġwoven": 6418,
      "Ġreply": 6419,
      "Ġreplen": 6420,
      "Ġfurious": 6421,
      "Ġhated": 6422,
      "Ġbedf": 6423,
      "Ġburden": 6424,
      "Ġcreation": 6425,
      "Ġattent": 6426,
      "Ġattitude": 6427,
      "Ġsleeps": 6428,
      "Ġsignal": 6429,
      "Ġbowl": 6430,
      "Ġwarri": 6431,
      "ontr": 6432,
      "Ġnorthern": 6433,
      "Ġharpooned": 6434,
      "Ġbenevo": 6435,
      "Ġcoral": 6436,
      "Ġbusy": 6437,
      "Ġsprink": 6438,
      "Ġjoined": 6439,
      "Ġaffected": 6440,
      "Ġpeculiarity": 6441,
      "ĠIndeed": 6442,
      "Ġcharts": 6443,
      "ocr": 6444,
      "ĠLeviathans": 6445,
      "Ġvisited": 6446,
      "Ġbloody": 6447,
      "Ġcircumf": 6448,
      "Ġspecially": 6449,
      "Ġsupply": 6450,
      "Ġfinding": 6451,
      "Ġcoloss": 6452,
      "Ġcolumn": 6453,
      "Ġsoliloqu": 6454,
      "Ġhomeward": 6455,
      "Ġseams": 6456,
      "Ġaddressed": 6457,
      "Ġpersu": 6458,
      "grown": 6459,
      "Ġneeded": 6460,
      "Ġbottomless": 6461,
      "ception": 6462,
      "pring": 6463,
      "Ġunde": 6464,
      "Ġvoices": 6465,
      "Ġparticularly": 6466,
      "Ġcruise": 6467,
      "Ġwidely": 6468,
      "Ġfacts": 6469,
      "ĠSeas": 6470,
      "Ġspiracle": 6471,
      "Ġfluke": 6472,
      "Ġquestions": 6473,
      "Ġappears": 6474,
      "Ġmagnetic": 6475,
      "Ġguard": 6476,
      "Ġpropri": 6477,
      "Ġchapters": 6478,
      "Ġproperty": 6479,
      "Ġwax": 6480,
      "Ġdividing": 6481,
      "Ġthickness": 6482,
      "stricken": 6483,
      "Ġcompanions": 6484,
      "Ġdragging": 6485,
      "formed": 6486,
      "Ġtablets": 6487,
      "Ġsumm": 6488,
      "ĠBeale": 6489,
      "ĠPerhaps": 6490,
      "Ġbreakers": 6491,
      "regn": 6492,
      "ertion": 6493,
      "Ġfatality": 6494,
      "coat": 6495,
      "Ġstepped": 6496,
      "Ġcoasts": 6497,
      "Ġinvestig": 6498,
      "Ġcatching": 6499,
      "ĠAnother": 6500,
      "poses": 6501,
      "position": 6502,
      "Ġphr": 6503,
      "Ġdestined": 6504,
      "Ġdestruction": 6505,
      "Ġblindly": 6506,
      "Ġsplintered": 6507,
      "ĠChristians": 6508,
      "Ġangle": 6509,
      "Ġlimit": 6510,
      "Ġseparately": 6511,
      "Ġlurking": 6512,
      "Ġbuild": 6513,
      "Ġpolished": 6514,
      "Ġeighteen": 6515,
      "Ġabsor": 6516,
      "Ġabsolute": 6517,
      "Ġanticip": 6518,
      "Ġanchors": 6519,
      "Ġpromise": 6520,
      "Ġeternally": 6521,
      "Ġodor": 6522,
      "Ġlogger": 6523,
      "Ġveil": 6524,
      "Ġfigures": 6525,
      "Ġannihil": 6526,
      "ĠHope": 6527,
      "work": 6528,
      "Ġpenetr": 6529,
      "Ġdogs": 6530,
      "Ġbreaths": 6531,
      "ĠFrenchman": 6532,
      "Ġcease": 6533,
      "orpoises": 6534,
      "Ġresem": 6535,
      "Ġ182": 6536,
      "Ġdrawers": 6537,
      "bbing": 6538,
      "Ġghosts": 6539,
      "Ġnecessity": 6540,
      "Ġnecessary": 6541,
      "Ġexcit": 6542,
      "Ġdoubloons": 6543,
      "Ġschools": 6544,
      "Ġfunny": 6545,
      "Ġcandle": 6546,
      "Ġpunct": 6547,
      "Ġgirl": 6548,
      "Ġperform": 6549,
      "Ġdismal": 6550,
      "Ġcords": 6551,
      "Ġrequires": 6552,
      "Ġsurprising": 6553,
      "Ġstretch": 6554,
      "Ġfaithful": 6555,
      "Ġbrig": 6556,
      "Ġcongregation": 6557,
      "Ġcongenial": 6558,
      "Ġnoiseless": 6559,
      "Ġstraining": 6560,
      "Ġcopy": 6561,
      "Ġcopper": 6562,
      "Ġimmediate": 6563,
      "chains": 6564,
      "Ġwidow": 6565,
      "ĠBrit": 6566,
      "Ġdelicate": 6567,
      "Ġdelicacy": 6568,
      "Ġearnestly": 6569,
      "Ġloudly": 6570,
      "Ġstudy": 6571,
      "Ġargument": 6572,
      "Ġindifference": 6573,
      "Ġsystemat": 6574,
      "Ġedge": 6575,
      "Ġcoolly": 6576,
      "Ġwhirling": 6577,
      "Ġsafety": 6578,
      "Ġunreason": 6579,
      "Ġknocking": 6580,
      "Ġinfluences": 6581,
      "Ġmusket": 6582,
      "Ġmajestic": 6583,
      "Ġtreated": 6584,
      "Ġdigest": 6585,
      "Ġhempen": 6586,
      "Ġranging": 6587,
      "Ġbuoyant": 6588,
      "Ġineff": 6589,
      "Ġinquir": 6590,
      "Ġpublic": 6591,
      "ĠCharity": 6592,
      "Ġcalculated": 6593,
      "Ġidentical": 6594,
      "Ġbidding": 6595,
      "Ġinexplicable": 6596,
      "ĠCetology": 6597,
      "Ġmechanical": 6598,
      "Ġspectacle": 6599,
      "Ġconsequence": 6600,
      "Ġexpected": 6601,
      "pieces": 6602,
      "Ġmillions": 6603,
      "Ġlingering": 6604,
      "Ġintelligence": 6605,
      "Ġincreased": 6606,
      "Ġextraordinary": 6607,
      "Ġdeliberately": 6608,
      "ĠEgyptian": 6609,
      "ĠSunday": 6610,
      "ĠHistory": 6611,
      "Ġstrangers": 6612,
      "ĠEurope": 6613,
      "ĠThrough": 6614,
      "Ġincidentally": 6615,
      "Ġrepresenting": 6616,
      "Ġunconscious": 6617,
      "Ġsqueeze": 6618,
      "Ġinnermost": 6619,
      "Ġmeasured": 6620,
      "Ġlikeness": 6621,
      "Ġjerking": 6622,
      "Ġhospit": 6623,
      "Ġdistinguished": 6624,
      "rupted": 6625,
      "ructed": 6626,
      "Ġshooting": 6627,
      "Ġfountain": 6628,
      "Ġpillow": 6629,
      "Ġninety": 6630,
      "Ġbeware": 6631,
      "Ġgarden": 6632,
      "Ġshivering": 6633,
      "Ġexistence": 6634,
      "Ġquadrant": 6635,
      "Ġprudent": 6636,
      "Ġaccomplished": 6637,
      "Ġverdure": 6638,
      "bolts": 6639,
      "uvian": 6640,
      "Ġthreads": 6641,
      "Ġbosom": 6642,
      "Ġproblem": 6643,
      "Ġglistening": 6644,
      "Ġindefinite": 6645,
      "Ġtechnically": 6646,
      "Ġvigilance": 6647,
      "Ġdiligently": 6648,
      "feeder": 6649,
      "Ġtitle": 6650,
      "Ġwoollen": 6651,
      "Ġhereditary": 6652,
      "Ġultimate": 6653,
      "ĠTyphoon": 6654,
      "ĠSecond": 6655,
      "ĠBulkington": 6656,
      "Ġcommenced": 6657,
      "Ġdollars": 6658,
      "Ġtraditions": 6659,
      "Ġstructure": 6660,
      "Ġadequately": 6661,
      "ĠJava": 6662,
      "Ġsteersman": 6663,
      "Ġirregular": 6664,
      "Ġlaughed": 6665,
      "Ġprivilege": 6666,
      "poling": 6667,
      "Ġsidelong": 6668,
      "Ġwestern": 6669,
      "Ġinhabit": 6670,
      "Ġdolph": 6671,
      "Ġnostrils": 6672,
      "ĠTarshish": 6673,
      "Ġsuggest": 6674,
      "Ġconspicuous": 6675,
      "ĠVishnoo": 6676,
      "Ġvicissitudes": 6677,
      "Landlord": 6678,
      "iognom": 6679,
      "Ġpivot": 6680,
      "Ġspasmod": 6681,
      "Ġintellect": 6682,
      "Ġcolossal": 6683,
      ";âĢĿ": 6684,
      "DE": 6685,
      "De": 6686,
      "Down": 6687,
      "Gr": 6688,
      "Ha": 6689,
      "IC": 6690,
      "Man": 6691,
      "Moby": 6692,
      "Nay": 6693,
      "RE": 6694,
      "Ship": 6695,
      "TU": 6696,
      "Very": 6697,
      "Whale": 6698,
      "ai": 6699,
      "aur": 6700,
      "bal": 6701,
      "bac": 6702,
      "bag": 6703,
      "bits": 6704,
      "bowed": 6705,
      "backed": 6706,
      "cru": 6707,
      "chet": 6708,
      "chest": 6709,
      "ded": 6710,
      "dri": 6711,
      "dling": 6712,
      "eous": 6713,
      "five": 6714,
      "gn": 6715,
      "gers": 6716,
      "hs": 6717,
      "horse": 6718,
      "iable": 6719,
      "lit": 6720,
      "mout": 6721,
      "mate": 6722,
      "minded": 6723,
      "navig": 6724,
      "oll": 6725,
      "oke": 6726,
      "oil": 6727,
      "oken": 6728,
      "phan": 6729,
      "pable": 6730,
      "pots": 6731,
      "rowed": 6732,
      "rised": 6733,
      "racted": 6734,
      "sk": 6735,
      "ti": 6736,
      "tw": 6737,
      "tal": 6738,
      "two": 6739,
      "ux": 6740,
      "uing": 6741,
      "vading": 6742,
      "zar": 6743,
      "zard": 6744,
      "zure": 6745,
      "Ġer": 6746,
      "Ġtu": 6747,
      "Ġtant": 6748,
      "Ġtone": 6749,
      "Ġtame": 6750,
      "Ġtread": 6751,
      "Ġtides": 6752,
      "Ġtawn": 6753,
      "Ġturb": 6754,
      "hets": 6755,
      "Ġale": 6756,
      "Ġawhile": 6757,
      "Ġavo": 6758,
      "Ġazure": 6759,
      "inable": 6760,
      "Ġshat": 6761,
      "Ġsap": 6762,
      "Ġsour": 6763,
      "Ġsized": 6764,
      "Ġsorrow": 6765,
      "Ġsister": 6766,
      "Ġwis": 6767,
      "Ġwaking": 6768,
      "Ġwrest": 6769,
      "Ġwrenched": 6770,
      "reed": 6771,
      "requ": 6772,
      "reary": 6773,
      "repid": 6774,
      "hap": 6775,
      "erving": 6776,
      "Ġbal": 6777,
      "Ġbred": 6778,
      "Ġbust": 6779,
      "Ġbubb": 6780,
      "Ġbarn": 6781,
      "Ġbony": 6782,
      "Ġbapt": 6783,
      "Ġbuffalo": 6784,
      "istern": 6785,
      "lephant": 6786,
      "Ġmess": 6787,
      "Ġmaz": 6788,
      "itt": 6789,
      "itz": 6790,
      "itan": 6791,
      "itors": 6792,
      "ouis": 6793,
      "ouch": 6794,
      "ouching": 6795,
      "Ġfled": 6796,
      "Ġfits": 6797,
      "Ġcit": 6798,
      "Ġcrest": 6799,
      "onn": 6800,
      "onation": 6801,
      "enger": 6802,
      "Ġinverted": 6803,
      "Ġhilar": 6804,
      "Ġhoney": 6805,
      "orily": 6806,
      "origin": 6807,
      "arning": 6808,
      "Ġtobac": 6809,
      "Ġphen": 6810,
      "Ġpowers": 6811,
      "Ġporpoises": 6812,
      "Ġdod": 6813,
      "Ġdies": 6814,
      "Ġdaught": 6815,
      "Ġduly": 6816,
      "Ġdivers": 6817,
      "Ġdreary": 6818,
      "anim": 6819,
      "atory": 6820,
      "attering": 6821,
      "asy": 6822,
      "ases": 6823,
      "Ġlot": 6824,
      "Ġlion": 6825,
      "Ġlink": 6826,
      "Ġlinks": 6827,
      "Ġnet": 6828,
      "Ġnails": 6829,
      "Ġnomin": 6830,
      "Ġnumbers": 6831,
      "utored": 6832,
      "Ġhall": 6833,
      "Ġhaught": 6834,
      "stones": 6835,
      "Ġbeheaded": 6836,
      "Ġgn": 6837,
      "Ġgest": 6838,
      "Ġgreg": 6839,
      "Ġgush": 6840,
      "Ġgaunt": 6841,
      "Ġghast": 6842,
      "Ġeb": 6843,
      "Ġeyed": 6844,
      "ĠIm": 6845,
      "seventh": 6846,
      "otent": 6847,
      "Ġonset": 6848,
      "Ġstation": 6849,
      "Ġstaring": 6850,
      "Ġsticking": 6851,
      "allen": 6852,
      "idge": 6853,
      "Ġyelled": 6854,
      "Ġseet": 6855,
      "verb": 6856,
      "vert": 6857,
      "veh": 6858,
      "vet": 6859,
      "acles": 6860,
      "entimes": 6861,
      "Ġasleep": 6862,
      "Ġwhist": 6863,
      "Ġris": 6864,
      "Ġrot": 6865,
      "Ġram": 6866,
      "Ġrif": 6867,
      "Ġrive": 6868,
      "Ġrings": 6869,
      "Ġriver": 6870,
      "Ġripe": 6871,
      "Ġrays": 6872,
      "Ġrule": 6873,
      "Ġripp": 6874,
      "Ġforb": 6875,
      "Ġforged": 6876,
      "Ġforked": 6877,
      "urther": 6878,
      "urance": 6879,
      "urgeon": 6880,
      "Ġreality": 6881,
      "Ġreeled": 6882,
      "aining": 6883,
      "ĠAway": 6884,
      "ĠTart": 6885,
      "ĠTry": 6886,
      "ĠSen": 6887,
      "ĠSal": 6888,
      "ĠSch": 6889,
      "ĠSupper": 6890,
      "cell": 6891,
      "celer": 6892,
      "ĠâĢľâĢĻ": 6893,
      "Ġallow": 6894,
      "Ġallowed": 6895,
      "Ġalluded": 6896,
      "âĢĿ;": 6897,
      "Ġwealth": 6898,
      "Ġweek": 6899,
      "Ġweaver": 6900,
      "ilty": 6901,
      "Ġanalog": 6902,
      "Ġshred": 6903,
      "Ġshown": 6904,
      "Ġshoes": 6905,
      "Ġshivered": 6906,
      "aming": 6907,
      "Ġnotwith": 6908,
      "ĠBen": 6909,
      "ĠBas": 6910,
      "roc": 6911,
      "ipel": 6912,
      "Ġupward": 6913,
      "Ġuprising": 6914,
      "Ġdey": 6915,
      "Ġdeed": 6916,
      "Ġdeaf": 6917,
      "ĠWatch": 6918,
      "ĠWHALE": 6919,
      "Ġvine": 6920,
      "Ġvult": 6921,
      "Ġvirgin": 6922,
      "ĠCle": 6923,
      "ĠCong": 6924,
      "ĠCook": 6925,
      "ĠCab": 6926,
      "ĠCross": 6927,
      "ĠCabin": 6928,
      "Ġmend": 6929,
      "Ġmeals": 6930,
      "Ġspades": 6931,
      "Ġspires": 6932,
      "agged": 6933,
      "agoes": 6934,
      "Ġorient": 6935,
      "Ġorphan": 6936,
      "ĠTheir": 6937,
      "Ġboil": 6938,
      "Ġbolt": 6939,
      "antage": 6940,
      "Ġcontains": 6941,
      "Ġconclusion": 6942,
      "outon": 6943,
      "ribut": 6944,
      "erson": 6945,
      "ĠPur": 6946,
      "ĠPull": 6947,
      "ĠPass": 6948,
      "ĠPict": 6949,
      "ĠHalloa": 6950,
      "Ġalarmed": 6951,
      "uments": 6952,
      "Ġunin": 6953,
      "Ġunce": 6954,
      "Ġunite": 6955,
      "Ġuniver": 6956,
      "Ġunited": 6957,
      "Ġintrepid": 6958,
      "elkilt": 6959,
      "owne": 6960,
      "using": 6961,
      "usants": 6962,
      "ĠNine": 6963,
      "ĠNatural": 6964,
      "odec": 6965,
      "akers": 6966,
      "ĠFe": 6967,
      "ĠFore": 6968,
      "ĠFates": 6969,
      "ĠFurther": 6970,
      "ĠSte": 6971,
      "ĠStates": 6972,
      "Ġoutr": 6973,
      "Ġoutside": 6974,
      "hank": 6975,
      "une": 6976,
      "pended": 6977,
      "Ġshipping": 6978,
      "istical": 6979,
      "Ġjot": 6980,
      "Ġjib": 6981,
      "Ġjugg": 6982,
      "Ġexter": 6983,
      "Ġexchan": 6984,
      "oods": 6985,
      "rable": 6986,
      "Ġfever": 6987,
      "Ġfears": 6988,
      "ĠMon": 6989,
      "ĠMal": 6990,
      "ĠMog": 6991,
      "ĠMiss": 6992,
      "Ġpla": 6993,
      "Ġplac": 6994,
      "Ġplant": 6995,
      "Ġplate": 6996,
      "Ġplacing": 6997,
      "Ġplague": 6998,
      "Ġabroad": 6999,
      "Ġabhor": 7000,
      "Ġaborigin": 7001,
      "Ġdoors": 7002,
      "Ġblowing": 7003,
      "Ġblades": 7004,
      "Ġblocks": 7005,
      "Ġoverhead": 7006,
      "poone": 7007,
      "ĠDidn": 7008,
      "ĠDoub": 7009,
      "iless": 7010,
      "ĠLow": 7011,
      "ĠLouis": 7012,
      "Ġtrip": 7013,
      "Ġtrust": 7014,
      "Ġtrack": 7015,
      "Ġtrace": 7016,
      "Ġproced": 7017,
      "Ġproverb": 7018,
      "avor": 7019,
      "Ġknot": 7020,
      "Ġknives": 7021,
      "Ġswart": 7022,
      "Ġswelled": 7023,
      "Ġswaying": 7024,
      "Ġflip": 7025,
      "Ġflound": 7026,
      "Ġflitting": 7027,
      "Ġtwin": 7028,
      "Ġtwain": 7029,
      "Ġtwil": 7030,
      "Ġtwig": 7031,
      "Ġtwine": 7032,
      "Ġark": 7033,
      "Ġquiver": 7034,
      "udden": 7035,
      "Ġcanoes": 7036,
      "ouring": 7037,
      "tles": 7038,
      "abol": 7039,
      "abama": 7040,
      "Ġcock": 7041,
      "Ġcovering": 7042,
      "Ġhovered": 7043,
      "Ġlongitude": 7044,
      "Ġbrill": 7045,
      "Ġbride": 7046,
      "Ġbraces": 7047,
      "ĠOF": 7048,
      "ĠOver": 7049,
      "ĠOwen": 7050,
      "Ġperman": 7051,
      "Ġperished": 7052,
      "Ġamb": 7053,
      "Ġgrin": 7054,
      "Ġgreatly": 7055,
      "Ġenraged": 7056,
      "Ġcrim": 7057,
      "Ġseeks": 7058,
      "Ġclut": 7059,
      "Ġhereabouts": 7060,
      "ĠEd": 7061,
      "ĠEn": 7062,
      "Ġsmiting": 7063,
      "Ġsmitten": 7064,
      "ordinate": 7065,
      "Ġglob": 7066,
      "Ġglanced": 7067,
      "urned": 7068,
      "?âĢĿâĢĶ": 7069,
      "ĠThunder": 7070,
      "ption": 7071,
      "Ġado": 7072,
      "Ġadmon": 7073,
      "Ġdismast": 7074,
      "ĠRo": 7075,
      "ĠRom": 7076,
      "Ġmightiest": 7077,
      "Ġowner": 7078,
      "arying": 7079,
      "Ġchurning": 7080,
      "Ġchocks": 7081,
      "Ġchowder": 7082,
      "igned": 7083,
      "Ġcontempt": 7084,
      "cloth": 7085,
      "Ġfoes": 7086,
      "Ġfoss": 7087,
      "angling": 7088,
      "angway": 7089,
      "Ġbetrayed": 7090,
      "Ġbetoken": 7091,
      "Ġmathe": 7092,
      "Ġconsist": 7093,
      "Ġknowest": 7094,
      "Ġcarving": 7095,
      "ĠYour": 7096,
      "ĠYork": 7097,
      "pses": 7098,
      "Ġentreat": 7099,
      "Ġentering": 7100,
      "Ġentrance": 7101,
      "acts": 7102,
      "sels": 7103,
      "Ġpresence": 7104,
      "Ġsubd": 7105,
      "Ġsubt": 7106,
      "Ġsubstit": 7107,
      "Ġmarching": 7108,
      "Ġmargin": 7109,
      "Ġdrugg": 7110,
      "Ġaccidents": 7111,
      "Ġresumed": 7112,
      "Ġresurre": 7113,
      "Ġsheet": 7114,
      "ensed": 7115,
      "Ġpassenger": 7116,
      "Ġlandlad": 7117,
      "Ġsunken": 7118,
      "Ġsunlight": 7119,
      "Ġopposing": 7120,
      "Ġcash": 7121,
      "Ġimpet": 7122,
      "Ġimpregn": 7123,
      "Ġsurp": 7124,
      "Ġsurre": 7125,
      "Ġsurgeon": 7126,
      "Ġbelief": 7127,
      "plings": 7128,
      "pected": 7129,
      "Ġspears": 7130,
      "Ġspending": 7131,
      "Ġcurled": 7132,
      "Ġcuriously": 7133,
      "Ġtears": 7134,
      "Ġinsuff": 7135,
      "Ġinsanity": 7136,
      "Ġslee": 7137,
      "Ġsleet": 7138,
      "Ġslender": 7139,
      "Ġmonth": 7140,
      "Ġemotions": 7141,
      "Ġpear": 7142,
      "Ġpurple": 7143,
      "Ġappet": 7144,
      "Ġgenerations": 7145,
      "Ġwrit": 7146,
      "Ġwrist": 7147,
      "Ġwrath": 7148,
      "Ġwrought": 7149,
      "Ġwrists": 7150,
      "ictions": 7151,
      "ugitive": 7152,
      "ternatural": 7153,
      "Ġfeelings": 7154,
      "erring": 7155,
      "Ġdarker": 7156,
      "Ġfuriously": 7157,
      "Ġhath": 7158,
      "Ġbury": 7159,
      "Ġburnt": 7160,
      "Ġspoutings": 7161,
      "They": 7162,
      "ierce": 7163,
      "Ġfinest": 7164,
      "Ġcapable": 7165,
      "Ġbreed": 7166,
      "Ġlays": 7167,
      "Ġlaying": 7168,
      "Ġfisherman": 7169,
      "Ġclen": 7170,
      "Ġuncon": 7171,
      "Ġuncond": 7172,
      "Ġsleepers": 7173,
      "Ġbowing": 7174,
      "Ġrecall": 7175,
      "Ġrecalled": 7176,
      "Ġdeeply": 7177,
      "Ġdeepest": 7178,
      "Ġsoundings": 7179,
      "Ġbestir": 7180,
      "Ġmoss": 7181,
      "Ġjoint": 7182,
      "Ġpeculiarly": 7183,
      "Ġboarded": 7184,
      "Ġdrops": 7185,
      "Ġexpans": 7186,
      "Ġprofane": 7187,
      "Ġprofund": 7188,
      "Ġchart": 7189,
      "Ġcompleted": 7190,
      "Ġcomplexion": 7191,
      "Ġassist": 7192,
      "Ġassail": 7193,
      "Ġassured": 7194,
      "Ġmouthful": 7195,
      "Ġcircumnavig": 7196,
      "Ġfasten": 7197,
      "spread": 7198,
      "Ġreturning": 7199,
      "Ġretired": 7200,
      "Ġsupplement": 7201,
      "ĠChief": 7202,
      "Ġartificial": 7203,
      "beat": 7204,
      "bearer": 7205,
      "Ġnewly": 7206,
      "Ġadvice": 7207,
      "plex": 7208,
      "Ġcourses": 7209,
      "Ġearthqu": 7210,
      "Ġdischar": 7211,
      "Ġconfidence": 7212,
      "Ġmadden": 7213,
      "Ġdepress": 7214,
      "however": 7215,
      "Ġdirected": 7216,
      "Ġpersons": 7217,
      "Ġreflection": 7218,
      "Ġrefuse": 7219,
      "Ġrefuge": 7220,
      "Ġacceler": 7221,
      "Ġsymm": 7222,
      "Ġserve": 7223,
      "Ġserpent": 7224,
      "Ġmerid": 7225,
      "ieties": 7226,
      "Ġsuprem": 7227,
      "Ġrelated": 7228,
      "Ġrelief": 7229,
      "Ġcommonly": 7230,
      "Ġspiral": 7231,
      "Ġsixteen": 7232,
      "Ġrigged": 7233,
      "Ġcontrad": 7234,
      "ĠAloft": 7235,
      "ĠAlabama": 7236,
      "ĠAmericans": 7237,
      "olding": 7238,
      "Ġcasting": 7239,
      "Ġappell": 7240,
      "Ġmagnet": 7241,
      "Ġswiftness": 7242,
      "Ġchapel": 7243,
      "Ġhammers": 7244,
      "maul": 7245,
      "Ġbreathing": 7246,
      "Ġbreathes": 7247,
      "Ġcooked": 7248,
      "Ġuseless": 7249,
      "Ġstartled": 7250,
      "Ġshades": 7251,
      "standing": 7252,
      "Ġsummon": 7253,
      "Ġtriang": 7254,
      "Ġvalue": 7255,
      "Ġheavenly": 7256,
      "Ġbarbed": 7257,
      "Ġraises": 7258,
      "ĠTranqu": 7259,
      "Ġproduced": 7260,
      "Ġproducing": 7261,
      "Ġimmemorial": 7262,
      "Ġideas": 7263,
      "Ġsteps": 7264,
      "Ġstepping": 7265,
      "ĠSpouter": 7266,
      "Ġpersonally": 7267,
      "screw": 7268,
      "Ġcattle": 7269,
      "Ġdecent": 7270,
      "Ġdecided": 7271,
      "Ġhurled": 7272,
      "Ġparlor": 7273,
      "Ġparalle": 7274,
      "ĠManill": 7275,
      "Ġsalted": 7276,
      "Ġribbed": 7277,
      "Ġshoals": 7278,
      "Ġsolely": 7279,
      "Ġproceeded": 7280,
      "Ġconsiderations": 7281,
      "ĠChristmas": 7282,
      "Ġillustr": 7283,
      "Ġdenomin": 7284,
      "Ġangel": 7285,
      "Ġcondition": 7286,
      "Ġidle": 7287,
      "Ġpatient": 7288,
      "Ġlimb": 7289,
      "Ġvainly": 7290,
      "ĠCanallers": 7291,
      "licated": 7292,
      "Ġdreaming": 7293,
      "Ġiceberg": 7294,
      "Ġschoon": 7295,
      "Ġlurk": 7296,
      "Ġdemocr": 7297,
      "Ġconstit": 7298,
      "Ġunwarr": 7299,
      "Ġbuilt": 7300,
      "Ġhangs": 7301,
      "Ġunfrequ": 7302,
      "Ġinvolve": 7303,
      "Ġanimated": 7304,
      "Ġviolence": 7305,
      "Ġpromont": 7306,
      "Ġboundless": 7307,
      "Ġdamned": 7308,
      "acetti": 7309,
      "Ġskulls": 7310,
      "Ġimportance": 7311,
      "Ġsentiment": 7312,
      "Ġodds": 7313,
      "Ġmilitary": 7314,
      "Ġheeded": 7315,
      "Ġheedful": 7316,
      "Ġdeclare": 7317,
      "Ġveins": 7318,
      "Ġwalked": 7319,
      "Ġheightened": 7320,
      "ĠHoly": 7321,
      "ĠHolland": 7322,
      "udding": 7323,
      "Ġembalmed": 7324,
      "Ġcorpore": 7325,
      "Ġcorpusants": 7326,
      "ustomed": 7327,
      "Ġsubjects": 7328,
      "Ġceiling": 7329,
      "Ġdreadful": 7330,
      "Ġprobable": 7331,
      "Ġprobability": 7332,
      "Ġ183": 7333,
      "Ġtapers": 7334,
      "Ġsilvery": 7335,
      "Ġcowards": 7336,
      "Ġleaky": 7337,
      "Ġattended": 7338,
      "Ġdevout": 7339,
      "Ġprovided": 7340,
      "Ġremembered": 7341,
      "going": 7342,
      "Ġeste": 7343,
      "Ġestim": 7344,
      "Ġburned": 7345,
      "arius": 7346,
      "Ġgirth": 7347,
      "Ġfrightened": 7348,
      "Ġmemory": 7349,
      "Ġaffairs": 7350,
      "Ġmothers": 7351,
      "Ġstretching": 7352,
      "Ġsignificance": 7353,
      "Ġuncommonly": 7354,
      "Ġlucky": 7355,
      "ĠChase": 7356,
      "Ġcomparative": 7357,
      "Ġcomparison": 7358,
      "Ġapartment": 7359,
      "Ġmurdered": 7360,
      "Ġderive": 7361,
      "ĠBrowne": 7362,
      "Ġvillage": 7363,
      "ĠPoor": 7364,
      "ĠStanding": 7365,
      "Ġsuperiority": 7366,
      "Ġrecklessly": 7367,
      "Ġexplain": 7368,
      "Ġprayers": 7369,
      "Ġpeaceful": 7370,
      "shaped": 7371,
      "Ġwitness": 7372,
      "Ġbeside": 7373,
      "Ġlisten": 7374,
      "Ġwhirl": 7375,
      "Ġknocked": 7376,
      "Ġchurches": 7377,
      "Ġmajesty": 7378,
      "ISH": 7379,
      "Ġfields": 7380,
      "Ġreveries": 7381,
      "ĠAdam": 7382,
      "Ġunpre": 7383,
      "ĠGoing": 7384,
      "Ġaccompanied": 7385,
      "Ġdestroy": 7386,
      "uzza": 7387,
      "Ġtattooing": 7388,
      "Ġinev": 7389,
      "Ġsucking": 7390,
      "Ġvibrating": 7391,
      "Ġscrewed": 7392,
      "ĠVoyages": 7393,
      "Ġpossessed": 7394,
      "Ġtalking": 7395,
      "Ġbubble": 7396,
      "Ġascending": 7397,
      "Ġamazing": 7398,
      "Ġamazement": 7399,
      "Ġscorched": 7400,
      "ĠIslands": 7401,
      "piece": 7402,
      "Ġpallor": 7403,
      "Ġpallid": 7404,
      "Ġintelligent": 7405,
      "Ġharmless": 7406,
      "Ġrobust": 7407,
      "Ġconsciousness": 7408,
      "Ġ177": 7409,
      "Ġcrawl": 7410,
      "Ġcrawling": 7411,
      "Ġphrenolog": 7412,
      "Ġengravings": 7413,
      "Ġcouple": 7414,
      "ĠSunda": 7415,
      "Ġshrieks": 7416,
      "Ġpreceding": 7417,
      "Ġcoffee": 7418,
      "coloured": 7419,
      "Ġaxis": 7420,
      "Ġbethink": 7421,
      "Ġstole": 7422,
      "Ġsemi": 7423,
      "Ġreigned": 7424,
      "Ġfragrant": 7425,
      "Ġbolted": 7426,
      "Ġextending": 7427,
      "Ġgrasped": 7428,
      "ĠVirginia": 7429,
      "Ġcorresponding": 7430,
      "Ġtriumphant": 7431,
      "Ġastonishment": 7432,
      "Ġdetermined": 7433,
      "Ġresemblance": 7434,
      "Ġomnip": 7435,
      "Ġwedding": 7436,
      "ĠAccording": 7437,
      "Ġfrigate": 7438,
      "Ġdexterous": 7439,
      "ĠPresently": 7440,
      "Ġslackened": 7441,
      "Ġremorseless": 7442,
      "Ġdelirium": 7443,
      "ĠTurkish": 7444,
      "hunter": 7445,
      "Ġaudacious": 7446,
      "Ġsagacious": 7447,
      "Ġdiabol": 7448,
      "Ġlounging": 7449,
      "Ġlanguage": 7450,
      "Ġisolated": 7451,
      "ĠTahiti": 7452,
      "Ġneighbor": 7453,
      "Ġexasperated": 7454,
      "Ġblazing": 7455,
      "ĠOriental": 7456,
      "Ġcontempl": 7457,
      "Ġfolds": 7458,
      "Ġsubterranean": 7459,
      "Ġencountering": 7460,
      "Ġsteadfastly": 7461,
      "Ġtreacherous": 7462,
      "Ġjeopardy": 7463,
      "Ġatmosphere": 7464,
      "Ġahoy": 7465,
      "Ġmasonry": 7466,
      "Ġwelcome": 7467,
      "ĠMidnight": 7468,
      "ĠMountains": 7469,
      "Ġaggreg": 7470,
      "Ġtrumpet": 7471,
      "Ġscreaming": 7472,
      "Ġaccordingly": 7473,
      "Ġspeechless": 7474,
      "Ġapplication": 7475,
      "Ġplaintiffs": 7476,
      "Ġawaiting": 7477,
      "Ġdiminished": 7478,
      "Ġheathenish": 7479,
      "Ġperfectly": 7480,
      "Ġbrawny": 7481,
      "Ġcounterpane": 7482,
      "Ġsorry": 7483,
      "Ġopport": 7484,
      "Ġceremon": 7485,
      "Ġperempt": 7486,
      "Ġrascal": 7487,
      "ĠSumatra": 7488,
      "ĠPersian": 7489,
      "Ġmanagement": 7490,
      "Ġunnecess": 7491,
      "Ġplunging": 7492,
      "Ġadrift": 7493,
      "Ġcarcase": 7494,
      "Ġhandspikes": 7495,
      "Ġsymptoms": 7496,
      "Ġirresistible": 7497,
      "Ġslippery": 7498,
      "Steelkilt": 7499,
      "Ġostentat": 7500,
      "Ġfibres": 7501,
      "Ġdumplings": 7502,
      "Ġserenity": 7503,
      "Ġvindict": 7504,
      "ĠPatagon": 7505,
      "ĠHindoo": 7506,
      "ĠHercules": 7507,
      "Ġunimag": 7508,
      "Ġintroduced": 7509,
      "ĠMethinks": 7510,
      "Ġgovern": 7511,
      "ĠInstantly": 7512,
      "Ġconscientious": 7513,
      "Ġsecrets": 7514,
      "Ġbenevolent": 7515,
      "Ġcircumference": 7516,
      "Ġphrase": 7517,
      "Ġloggerhead": 7518,
      "Ġexcitement": 7519,
      "mouthed": 7520,
      "Ġavoid": 7521,
      "Ġshattered": 7522,
      "Ġsource": 7523,
      "Ġtobacco": 7524,
      "Ġphenomen": 7525,
      "Ġshreds": 7526,
      "Ġnotwithstanding": 7527,
      "ipelagoes": 7528,
      "ĠCabaco": 7529,
      "Ġoriental": 7530,
      "ĠPictures": 7531,
      "Ġuniverse": 7532,
      "ĠNineveh": 7533,
      "odecim": 7534,
      "ĠMogul": 7535,
      "Ġresurrection": 7536,
      "Ġlandlady": 7537,
      "Ġunnecessary": 7538,
      "AG": 7539,
      "Ah": 7540,
      "As": 7541,
      "At": 7542,
      "Bl": 7543,
      "CI": 7544,
      "Didn": 7545,
      "Hands": 7546,
      "IP": 7547,
      "LI": 7548,
      "Lower": 7549,
      "NG": 7550,
      "Stern": 7551,
      "See": 7552,
      "With": 7553,
      "Will": 7554,
      "Ye": 7555,
      "You": 7556,
      "ais": 7557,
      "ait": 7558,
      "bar": 7559,
      "bers": 7560,
      "bra": 7561,
      "brew": 7562,
      "bler": 7563,
      "break": 7564,
      "car": 7565,
      "com": 7566,
      "captain": 7567,
      "cried": 7568,
      "cence": 7569,
      "chant": 7570,
      "dr": 7571,
      "dor": 7572,
      "dest": 7573,
      "fre": 7574,
      "fed": 7575,
      "fall": 7576,
      "fra": 7577,
      "fins": 7578,
      "god": 7579,
      "glass": 7580,
      "hook": 7581,
      "hical": 7582,
      "iated": 7583,
      "ieth": 7584,
      "iency": 7585,
      "jac": 7586,
      "jud": 7587,
      "jured": 7588,
      "kens": 7589,
      "kins": 7590,
      "luck": 7591,
      "lorn": 7592,
      "lerable": 7593,
      "mother": 7594,
      "nes": 7595,
      "nel": 7596,
      "nces": 7597,
      "nels": 7598,
      "put": 7599,
      "pull": 7600,
      "pres": 7601,
      "pike": 7602,
      "paul": 7603,
      "rad": 7604,
      "rings": 7605,
      "rained": 7606,
      "sis": 7607,
      "table": 7608,
      "ttom": 7609,
      "trees": 7610,
      "turb": 7611,
      "vity": 7612,
      "whe": 7613,
      "wer": 7614,
      "will": 7615,
      "whaling": 7616,
      "watch": 7617,
      "yt": 7618,
      "yet": 7619,
      "yards": 7620,
      "Ã©": 7621,
      "ĠX": 7622,
      "Ġic": 7623,
      "Ġty": 7624,
      "Ġtas": 7625,
      "Ġtent": 7626,
      "Ġtil": 7627,
      "Ġtough": 7628,
      "Ġtus": 7629,
      "Ġtones": 7630,
      "heard": 7631,
      "hent": 7632,
      "Ġaim": 7633,
      "Ġach": 7634,
      "inters": 7635,
      "inition": 7636,
      "inces": 7637,
      "inately": 7638,
      "Ġtheory": 7639,
      "Ġsed": 7640,
      "Ġsore": 7641,
      "Ġsig": 7642,
      "Ġshab": 7643,
      "Ġshed": 7644,
      "Ġsits": 7645,
      "Ġscept": 7646,
      "Ġsouthern": 7647,
      "Ġsallied": 7648,
      "Ġoaken": 7649,
      "Ġomitted": 7650,
      "Ġwed": 7651,
      "Ġwight": 7652,
      "Ġwri": 7653,
      "Ġwaving": 7654,
      "Ġwives": 7655,
      "Ġwaved": 7656,
      "hazz": 7657,
      "erce": 7658,
      "eries": 7659,
      "erably": 7660,
      "Ġbord": 7661,
      "Ġbade": 7662,
      "Ġbrew": 7663,
      "Ġbund": 7664,
      "Ġbanqu": 7665,
      "lebr": 7666,
      "Ġmap": 7667,
      "Ġmum": 7668,
      "Ġmask": 7669,
      "Ġmumbling": 7670,
      "itating": 7671,
      "Ġfed": 7672,
      "Ġfac": 7673,
      "Ġfem": 7674,
      "Ġfel": 7675,
      "Ġfable": 7676,
      "Ġfile": 7677,
      "Ġfacing": 7678,
      "Ġfidel": 7679,
      "Ġfaded": 7680,
      "Ġfugitive": 7681,
      "Ġced": 7682,
      "Ġcell": 7683,
      "Ġcaw": 7684,
      "Ġcens": 7685,
      "Ġcave": 7686,
      "eded": 7687,
      "edro": 7688,
      "onor": 7689,
      "only": 7690,
      "onies": 7691,
      "onted": 7692,
      "onial": 7693,
      "onstr": 7694,
      "Ġinhale": 7695,
      "Ġhoof": 7696,
      "Ġhyp": 7697,
      "orks": 7698,
      "ormed": 7699,
      "aron": 7700,
      "arus": 7701,
      "arming": 7702,
      "arms": 7703,
      "arctic": 7704,
      "Ġtoes": 7705,
      "Ġtool": 7706,
      "Ġtoiled": 7707,
      "Ġtokens": 7708,
      "Ġtolerable": 7709,
      "ester": 7710,
      "Ġpound": 7711,
      "Ġpig": 7712,
      "Ġpew": 7713,
      "Ġpool": 7714,
      "Ġpump": 7715,
      "Ġpenc": 7716,
      "Ġpedd": 7717,
      "Ġpacked": 7718,
      "Ġpush": 7719,
      "Ġpoured": 7720,
      "Ġporpoise": 7721,
      "Ġpushing": 7722,
      "Ġded": 7723,
      "Ġdent": 7724,
      "Ġdip": 7725,
      "Ġdus": 7726,
      "Ġduck": 7727,
      "Ġdance": 7728,
      "Ġdress": 7729,
      "Ġdict": 7730,
      "Ġdents": 7731,
      "Ġdotted": 7732,
      "Ġdazz": 7733,
      "anque": 7734,
      "atin": 7735,
      "atiate": 7736,
      "asant": 7737,
      "Ġlun": 7738,
      "Ġnon": 7739,
      "Ġnod": 7740,
      "Ġnation": 7741,
      "Ġnour": 7742,
      "Ġnice": 7743,
      "Ġnaut": 7744,
      "omas": 7745,
      "Ġthump": 7746,
      "Ġthumb": 7747,
      "Ġheaps": 7748,
      "uting": 7749,
      "lydon": 7750,
      "sts": 7751,
      "stead": 7752,
      "Ġbend": 7753,
      "Ġbeard": 7754,
      "Ġbeasts": 7755,
      "Ġgor": 7756,
      "Ġgrie": 7757,
      "Ġgulf": 7758,
      "Ġgurg": 7759,
      "Ġeg": 7760,
      "Ġech": 7761,
      "icha": 7762,
      "icle": 7763,
      "icorn": 7764,
      "icirc": 7765,
      "iculous": 7766,
      "Ġug": 7767,
      "Ġumb": 7768,
      "otha": 7769,
      "ottle": 7770,
      "Ġstick": 7771,
      "Ġstately": 7772,
      "Ġstagg": 7773,
      "Ġstooping": 7774,
      "Ġstooped": 7775,
      "Ġstamped": 7776,
      "alous": 7777,
      "idly": 7778,
      "idated": 7779,
      "Ġselect": 7780,
      "Ġsevere": 7781,
      "irm": 7782,
      "iron": 7783,
      "ache": 7784,
      "aciously": 7785,
      "add": 7786,
      "ado": 7787,
      "adise": 7788,
      "adays": 7789,
      "etime": 7790,
      "Ġwhim": 7791,
      "Ġrous": 7792,
      "Ġrand": 7793,
      "Ġrough": 7794,
      "Ġraz": 7795,
      "Ġriot": 7796,
      "Ġrisk": 7797,
      "Ġforwards": 7798,
      "Ġforlorn": 7799,
      "urch": 7800,
      "urous": 7801,
      "urred": 7802,
      "urday": 7803,
      "Ġrehe": 7804,
      "Ġrecl": 7805,
      "Ġrearing": 7806,
      "ĠAL": 7807,
      "ĠAss": 7808,
      "ĠAug": 7809,
      "ĠTA": 7810,
      "ĠTw": 7811,
      "ĠTom": 7812,
      "ĠTalk": 7813,
      "ĠTwo": 7814,
      "Ġwash": 7815,
      "Ġwasn": 7816,
      "Ġwasted": 7817,
      "ĠSay": 7818,
      "ĠSib": 7819,
      "ĠSurely": 7820,
      "ĠSpring": 7821,
      "Ġallusion": 7822,
      "Ġweak": 7823,
      "Ġanom": 7824,
      "Ġanew": 7825,
      "Ġath": 7826,
      "orers": 7827,
      "Ġshun": 7828,
      "Ġshower": 7829,
      "Ġshowing": 7830,
      "Ġshifted": 7831,
      "Ġsoap": 7832,
      "Ġframe": 7833,
      "Ġfrank": 7834,
      "quered": 7835,
      "iform": 7836,
      "Ġnote": 7837,
      "ĠBal": 7838,
      "ĠBack": 7839,
      "ĠBels": 7840,
      "ĠBanks": 7841,
      "ĠBishop": 7842,
      "ĠBeware": 7843,
      "rov": 7844,
      "ipple": 7845,
      "andy": 7846,
      "anders": 7847,
      "Ġbutts": 7848,
      "Ġleis": 7849,
      "ĠWashing": 7850,
      "ulged": 7851,
      "ullest": 7852,
      "Ġvile": 7853,
      "ĠCor": 7854,
      "ĠColog": 7855,
      "ĠCzar": 7856,
      "Ġspaces": 7857,
      "ardon": 7858,
      "agn": 7859,
      "agle": 7860,
      "Ġwhel": 7861,
      "Ġorn": 7862,
      "Ġsaith": 7863,
      "Ġsaved": 7864,
      "arto": 7865,
      "Ġcontain": 7866,
      "Ġconstr": 7867,
      "Ġcontained": 7868,
      "Ġconvers": 7869,
      "rederick": 7870,
      "cture": 7871,
      "ember": 7872,
      "riage": 7873,
      "ĠPost": 7874,
      "ĠPedro": 7875,
      "Ġtherein": 7876,
      "ĠHer": 7877,
      "ĠHose": 7878,
      "ĠHarr": 7879,
      "Ġalien": 7880,
      "umping": 7881,
      "Ġunst": 7882,
      "Ġunsu": 7883,
      "Ġungr": 7884,
      "Ġunrest": 7885,
      "Ġuninter": 7886,
      "Ġuniform": 7887,
      "Ġsomebody": 7888,
      "ĠNAN": 7889,
      "Ġnowhere": 7890,
      "Ġnowadays": 7891,
      "Ġcomical": 7892,
      "Ġkicking": 7893,
      "Ġneared": 7894,
      "odiac": 7895,
      "orty": 7896,
      "ĠFish": 7897,
      "ĠFate": 7898,
      "ĠFour": 7899,
      "ĠFolio": 7900,
      "ĠFrance": 7901,
      "ĠForty": 7902,
      "ĠState": 7903,
      "ĠStop": 7904,
      "Ġoutst": 7905,
      "unct": 7906,
      "istics": 7907,
      "Ġjour": 7908,
      "Ġexhale": 7909,
      "Ġexposed": 7910,
      "Ġfee": 7911,
      "Ġfeature": 7912,
      "idean": 7913,
      "Ġaged": 7914,
      "thought": 7915,
      "Ġplight": 7916,
      "Ġabomin": 7917,
      "Ġdoze": 7918,
      "Ġdocks": 7919,
      "Ġbland": 7920,
      "Ġblown": 7921,
      "Ġblasp": 7922,
      "ateful": 7923,
      "inea": 7924,
      "ineer": 7925,
      "Ġpreternatural": 7926,
      "poor": 7927,
      "pointing": 7928,
      "ĠDU": 7929,
      "ĠDost": 7930,
      "Ġwhoever": 7931,
      "ĠLeg": 7932,
      "ĠLaz": 7933,
      "ĠLinn": 7934,
      "ĠLangs": 7935,
      "Ġwhatsoever": 7936,
      "Ġtimbers": 7937,
      "Ġworst": 7938,
      "Ġtrain": 7939,
      "Ġtrag": 7940,
      "Ġtrick": 7941,
      "Ġtrance": 7942,
      "Ġtramp": 7943,
      "Ġtraged": 7944,
      "Ġproc": 7945,
      "Ġafar": 7946,
      "avy": 7947,
      "ieu": 7948,
      "ĠGall": 7949,
      "Ġknotted": 7950,
      "Ġswing": 7951,
      "Ġsway": 7952,
      "Ġswayed": 7953,
      "Ġswarming": 7954,
      "Ġharbors": 7955,
      "Ġflies": 7956,
      "Ġflower": 7957,
      "Ġflashing": 7958,
      "Ġflashes": 7959,
      "Ġflaming": 7960,
      "Ġflavor": 7961,
      "Ġgoin": 7962,
      "Ġgoble": 7963,
      "Ġaright": 7964,
      "Ġarrow": 7965,
      "Ġwilling": 7966,
      "Ġcane": 7967,
      "Ġdownright": 7968,
      "Ġhandled": 7969,
      "Ġhandker": 7970,
      "Ġshallow": 7971,
      "Ġshakes": 7972,
      "Ġshame": 7973,
      "Ġherring": 7974,
      "ours": 7975,
      "abor": 7976,
      "about": 7977,
      "Ġcoil": 7978,
      "Ġcoals": 7979,
      "Ġcoins": 7980,
      "Ġcoco": 7981,
      "Ġcosy": 7982,
      "Ġwatched": 7983,
      "egone": 7984,
      "Ġbrace": 7985,
      "Ġbranc": 7986,
      "ĠOther": 7987,
      "ĠOft": 7988,
      "ĠOnce": 7989,
      "Ġroar": 7990,
      "Ġroad": 7991,
      "Ġrooted": 7992,
      "Ġpermit": 7993,
      "Ġpertaining": 7994,
      "Ġpermitted": 7995,
      "Ġusually": 7996,
      "Ġgrasp": 7997,
      "Ġenlight": 7998,
      "Ġenvelop": 7999,
      "Ġparties": 8000,
      "Ġcracks": 8001,
      ",âĢĿâĢĶ": 8002,
      "Ġscud": 8003,
      "Ġscience": 8004,
      "Ġscales": 8005,
      "Ġclay": 8006,
      "Ġclimes": 8007,
      "Ġclutch": 8008,
      "ĠEl": 8009,
      "ĠElephant": 8010,
      "Ġslipping": 8011,
      "Ġsmile": 8012,
      "Ġsmote": 8013,
      "fts": 8014,
      "Ġhowled": 8015,
      "Ġcompact": 8016,
      "Ġcompetent": 8017,
      "Ġcomplicated": 8018,
      "Ġchain": 8019,
      "Ġchaps": 8020,
      "Ġrounded": 8021,
      "ounted": 8022,
      "ĠThree": 8023,
      "athom": 8024,
      "Ġdisd": 8025,
      "Ġdisse": 8026,
      "ĠRet": 8027,
      "ĠRome": 8028,
      "ĠRose": 8029,
      "Ġprick": 8030,
      "Ġprison": 8031,
      "ĠJud": 8032,
      "ĠJob": 8033,
      "ĠJung": 8034,
      "Ġwherever": 8035,
      "Ġwherefore": 8036,
      "ecl": 8037,
      "Ġowned": 8038,
      "lier": 8039,
      "thest": 8040,
      "Ġload": 8041,
      "Ġloath": 8042,
      "Ġchin": 8043,
      "Ġchis": 8044,
      "Ġchip": 8045,
      "Ġchoose": 8046,
      "Ġchips": 8047,
      "Ġchorus": 8048,
      "igns": 8049,
      "ignant": 8050,
      "izings": 8051,
      "ization": 8052,
      "Ġcontro": 8053,
      "Ġremove": 8054,
      "Ġremonstr": 8055,
      "Ġcalves": 8056,
      "Ġgoodness": 8057,
      "Ġbacked": 8058,
      "Ġbackwards": 8059,
      "Ġdeser": 8060,
      "Ġdeserted": 8061,
      "Ġmaternal": 8062,
      "Ġstanders": 8063,
      "ĠWhich": 8064,
      "Ġconsists": 8065,
      "Ġconsumed": 8066,
      "shot": 8067,
      "shore": 8068,
      "shoe": 8069,
      "Ġentr": 8070,
      "Ġenters": 8071,
      "Ġentangled": 8072,
      "action": 8073,
      "awed": 8074,
      "Ġcommerce": 8075,
      "Ġpreserved": 8076,
      "Ġpreserve": 8077,
      "Ġmarch": 8078,
      "Ġdram": 8079,
      "Ġended": 8080,
      "Ġaccum": 8081,
      "Ġaccustomed": 8082,
      "Ġresist": 8083,
      "Ġresult": 8084,
      "Ġresuming": 8085,
      "ĠSoci": 8086,
      "Ġshelf": 8087,
      "Ġsheath": 8088,
      "Ġwinding": 8089,
      "Ġwindows": 8090,
      "Ġpasseng": 8091,
      "Ġsunny": 8092,
      "Ġforebod": 8093,
      "Ġforests": 8094,
      "Ġimpro": 8095,
      "Ġimpart": 8096,
      "Ġimpelled": 8097,
      "viating": 8098,
      "eneral": 8099,
      "Ġlighter": 8100,
      "Ġinvited": 8101,
      "Ġinterm": 8102,
      "Ġinterven": 8103,
      "Ġinterrupt": 8104,
      "Ġinternal": 8105,
      "Ġinterpre": 8106,
      "Ġsurve": 8107,
      "plic": 8108,
      "plain": 8109,
      "place": 8110,
      "Ġtea": 8111,
      "Ġsecur": 8112,
      "ĠAsi": 8113,
      "ĠAsia": 8114,
      "airing": 8115,
      "Ġinfants": 8116,
      "Ġinference": 8117,
      "Ġcircular": 8118,
      "Ġemotion": 8119,
      "Ġpurcha": 8120,
      "Ġhumming": 8121,
      "Ġhelping": 8122,
      "Ġgenerous": 8123,
      "Ġwrite": 8124,
      "Ġvoyag": 8125,
      "ugn": 8126,
      "ĠVery": 8127,
      "ĠVenet": 8128,
      "Ġrights": 8129,
      "Ġcheering": 8130,
      "Ġcannon": 8131,
      "Ġeluc": 8132,
      "Ġregion": 8133,
      "Ġrepent": 8134,
      "Ġinstantaneous": 8135,
      "Ġfurthest": 8136,
      "ampus": 8137,
      "Ġhatchet": 8138,
      "Ġreader": 8139,
      "Ġreadiness": 8140,
      "Ġspouted": 8141,
      "Ġfinished": 8142,
      "Ġcapit": 8143,
      "Ġcapric": 8144,
      "Ġbreaches": 8145,
      "Ġdrab": 8146,
      "Ġmidway": 8147,
      "Ġcreated": 8148,
      "Ġcleared": 8149,
      "Ġconcre": 8150,
      "Ġsigned": 8151,
      "rescent": 8152,
      "Ġsweat": 8153,
      "Ġrecently": 8154,
      "Ġcorrupt": 8155,
      "Ġcoronation": 8156,
      "Ġtails": 8157,
      "Ġsprung": 8158,
      "ouded": 8159,
      "Ġdoubted": 8160,
      "Ġdoubts": 8161,
      "Ġmaintain": 8162,
      "Ġmaintained": 8163,
      "Ġjoints": 8164,
      "ĠKnight": 8165,
      "Ġboarding": 8166,
      "Ġcommanding": 8167,
      "ĠIndia": 8168,
      "Ġexpense": 8169,
      "Ġexpanded": 8170,
      "Ġexpressed": 8171,
      "Ġprofile": 8172,
      "oclydon": 8173,
      "inese": 8174,
      "Ġassure": 8175,
      "Ġassaults": 8176,
      "Ġextent": 8177,
      "Ġextinct": 8178,
      "Ġvision": 8179,
      "suing": 8180,
      "Ġmission": 8181,
      "Ġmiscell": 8182,
      "ĠChurch": 8183,
      "ĠChinese": 8184,
      "Ġsmoked": 8185,
      "Ġcontinue": 8186,
      "Ġcontinuous": 8187,
      "Ġstrikes": 8188,
      "cluded": 8189,
      "Ġmarket": 8190,
      "Ġcollected": 8191,
      "Ġadvances": 8192,
      "Ġadvantage": 8193,
      "Ġcourt": 8194,
      "Ġsolic": 8195,
      "Ġports": 8196,
      "Ġportra": 8197,
      "Ġportents": 8198,
      "Ġconfounded": 8199,
      "Ġtopmost": 8200,
      "grim": 8201,
      "penters": 8202,
      "Ġmincer": 8203,
      "Ġcounted": 8204,
      "Ġcountless": 8205,
      "Ġpitching": 8206,
      "devil": 8207,
      "Ġstraightened": 8208,
      "prise": 8209,
      "hark": 8210,
      "Ġheadsmen": 8211,
      "lson": 8212,
      "Ġaware": 8213,
      "Ġmute": 8214,
      "Ġmutual": 8215,
      "Ġflee": 8216,
      "Ġflex": 8217,
      "Ġquarters": 8218,
      "Ġcruc": 8219,
      "Ġcruis": 8220,
      "critters": 8221,
      "Ġtransom": 8222,
      "Ġtransition": 8223,
      "Ġmassive": 8224,
      "Ġstrongest": 8225,
      "ĠEnglishman": 8226,
      "ĠAlb": 8227,
      "Ġbitt": 8228,
      "Ġguilty": 8229,
      "ĠDeck": 8230,
      "ĠDevil": 8231,
      "Ġprophec": 8232,
      "Ġrocked": 8233,
      "Ġobservation": 8234,
      "eady": 8235,
      "Ġvarieties": 8236,
      "Though": 8237,
      "Ġwait": 8238,
      "Ġbreathe": 8239,
      "Ġfifth": 8240,
      "Ġdiving": 8241,
      "Ġdivide": 8242,
      "Ġthickly": 8243,
      "Ġuseful": 8244,
      "ropes": 8245,
      "Ġdragon": 8246,
      "Ġkindred": 8247,
      "Ġsituation": 8248,
      "ĠArctic": 8249,
      "ĠBeing": 8250,
      "ĠBear": 8251,
      "Ġpursuing": 8252,
      "Ġpursuers": 8253,
      "Ġbreaks": 8254,
      "Ġofficial": 8255,
      "holding": 8256,
      "coast": 8257,
      "Ġmildness": 8258,
      "Ġdimens": 8259,
      "ĠTruth": 8260,
      "ĠTranque": 8261,
      "Ġproduce": 8262,
      "Ġimminent": 8263,
      "Ġdetail": 8264,
      "ĠSpan": 8265,
      "ĠSpitz": 8266,
      "Ġdefy": 8267,
      "Ġdefend": 8268,
      "Ġdefinition": 8269,
      "Ġinvests": 8270,
      "Ġfurniture": 8271,
      "Ġaspects": 8272,
      "Ġmoder": 8273,
      "Ġmodified": 8274,
      "Ġpalm": 8275,
      "Ġpalpable": 8276,
      "seeing": 8277,
      "Ġdecap": 8278,
      "Ġplaying": 8279,
      "ĠQuick": 8280,
      "ends": 8281,
      "Ġparm": 8282,
      "Ġbillow": 8283,
      "Ġbilliard": 8284,
      "ĠMany": 8285,
      "Ġblinding": 8286,
      "Ġoccasions": 8287,
      "Ġsalvation": 8288,
      "Ġblended": 8289,
      "Ġblending": 8290,
      "Ġleader": 8291,
      "Ġsplinters": 8292,
      "Ġproceeding": 8293,
      "Ġproceedings": 8294,
      "Ġskeletons": 8295,
      "Ġnarrated": 8296,
      "Ġcondem": 8297,
      "Ġidiot": 8298,
      "lestial": 8299,
      "Ġpatched": 8300,
      "Ġseparated": 8301,
      "Ġcrowds": 8302,
      "Ġbelieved": 8303,
      "Ġhulls": 8304,
      "Ġhairs": 8305,
      "Ġdegrees": 8306,
      "Ġconstant": 8307,
      "Ġunwonted": 8308,
      "Ġexperiment": 8309,
      "Ġexperiences": 8310,
      "Ġpolicy": 8311,
      "Ġgallows": 8312,
      "Ġgallons": 8313,
      "Ġsuffering": 8314,
      "Ġunfathom": 8315,
      "Ġabsence": 8316,
      "Ġlaws": 8317,
      "Ġlawy": 8318,
      "Ġanimals": 8319,
      "Ġscrat": 8320,
      "Ġscraping": 8321,
      "Ġmoods": 8322,
      "Ġearlier": 8323,
      "Ġpainting": 8324,
      "attling": 8325,
      "Ġprofoundest": 8326,
      "Ġnumberless": 8327,
      "Ġwalrus": 8328,
      "Ġannounced": 8329,
      "Ġannouncing": 8330,
      "Ġdescended": 8331,
      "Ġpenn": 8332,
      "Ġshouting": 8333,
      "Ġvolition": 8334,
      "Inn": 8335,
      "Ġtube": 8336,
      "Ġfighting": 8337,
      "Ġcelebr": 8338,
      "Ġcelestial": 8339,
      "Ġmysteries": 8340,
      "Ġuttermost": 8341,
      "Ġperiodical": 8342,
      "bbling": 8343,
      "Ġvapory": 8344,
      "ĠLikewise": 8345,
      "Ġarrive": 8346,
      "Ġarrival": 8347,
      "Ġcheerful": 8348,
      "Ġinclude": 8349,
      "Ġtowns": 8350,
      "Ġposture": 8351,
      "Ġgroves": 8352,
      "Ġstuffed": 8353,
      "Ġvigor": 8354,
      "Ġhorrors": 8355,
      "Ġfrequented": 8356,
      "Ġschoolmaster": 8357,
      "Ã¦us": 8358,
      "Ġtumbled": 8359,
      "Ġcandid": 8360,
      "Ġworshipping": 8361,
      "Ġdismay": 8362,
      "Ġapproach": 8363,
      "Ġerected": 8364,
      "Ġsqualls": 8365,
      "Ġshrouded": 8366,
      "Ġauthorities": 8367,
      "Ġhooks": 8368,
      "Ġhooked": 8369,
      "Ġridiculous": 8370,
      "Ġrequire": 8371,
      "Ġsurprised": 8372,
      "Ġcolours": 8373,
      "flowing": 8374,
      "Ġtrembling": 8375,
      "Ġmedic": 8376,
      "ĠChapel": 8377,
      "Ġgloomy": 8378,
      "Ġadmire": 8379,
      "Ġhorizontally": 8380,
      "Ġfilling": 8381,
      "Ġjudge": 8382,
      "Ġsuccessive": 8383,
      "Ġsuccessful": 8384,
      "Ġrevolved": 8385,
      "bury": 8386,
      "Ġreckless": 8387,
      "Ġarchite": 8388,
      "Ġarchipelagoes": 8389,
      "Ġspeedy": 8390,
      "Ġsuperstitions": 8391,
      "battle": 8392,
      "Ġcooper": 8393,
      "Ġpotency": 8394,
      "Ġpaper": 8395,
      "Ġpickle": 8396,
      "Ġvacant": 8397,
      "Ġunmo": 8398,
      "Ġunusually": 8399,
      "Ġimpression": 8400,
      "Ġcrowding": 8401,
      "ucif": 8402,
      "Ġpirate": 8403,
      "Ġstirred": 8404,
      "Ġwithdrawn": 8405,
      "Ġfortitude": 8406,
      "Ġobeying": 8407,
      "Ġaccompanying": 8408,
      "Ġincredulous": 8409,
      "Ġarticle": 8410,
      "Ġlanterns": 8411,
      "Ġzone": 8412,
      "Ġtarpaul": 8413,
      "Ġmouldy": 8414,
      "Ġcredulous": 8415,
      "Ġinquiring": 8416,
      "Ġpuffs": 8417,
      "Ġlaunched": 8418,
      "Ġlifetime": 8419,
      "Ġbefell": 8420,
      "Ġeastward": 8421,
      "Ġvibration": 8422,
      "Ġvengeful": 8423,
      "Ġimagination": 8424,
      "Ġcalculating": 8425,
      "bergen": 8426,
      "Ġwharves": 8427,
      "Ġsnatched": 8428,
      "Ġafforded": 8429,
      "Ġfiercely": 8430,
      "Ġidentity": 8431,
      "Ġtalked": 8432,
      "Ġmirr": 8433,
      "Ġmultip": 8434,
      "Ġnavy": 8435,
      "Ġnavies": 8436,
      "Ġthroat": 8437,
      "Ġascended": 8438,
      "Ġraging": 8439,
      "Ġscorching": 8440,
      "Ġadventure": 8441,
      "Ġembraces": 8442,
      "Ġsufficient": 8443,
      "Ġsacr": 8444,
      "Ġfiends": 8445,
      "Ġlingered": 8446,
      "Ġrobes": 8447,
      "Ġincreasing": 8448,
      "Ġhumorously": 8449,
      "ictionary": 8450,
      "Ġtempestuous": 8451,
      "Ġdeliberate": 8452,
      "bowl": 8453,
      "Ġerrand": 8454,
      "Ġpredest": 8455,
      "Ġhealthy": 8456,
      "Ġgleamed": 8457,
      "Ġemerged": 8458,
      "Ġruin": 8459,
      "Ġwheeling": 8460,
      "Ġconvey": 8461,
      "Ġexhausted": 8462,
      "Ġabandon": 8463,
      "Ġcoffins": 8464,
      "ĠEuroclydon": 8465,
      "Ġloomed": 8466,
      "Ġdesignated": 8467,
      "Ġsurvive": 8468,
      "Ġconcentr": 8469,
      "Ġunconsciously": 8470,
      "Ġextracted": 8471,
      "Ġantique": 8472,
      "Ġantiquity": 8473,
      "Ġaxe": 8474,
      "Ġsemicirc": 8475,
      "Ġrevelry": 8476,
      "Ġventure": 8477,
      "Ġextended": 8478,
      "ĠGlobe": 8479,
      "Ġarrang": 8480,
      "Ġhospitable": 8481,
      "Ġgrasping": 8482,
      "Ġchoice": 8483,
      "Ġimpatient": 8484,
      "Ġresembling": 8485,
      "Ġmurderers": 8486,
      "Ġwedded": 8487,
      "Ġoftentimes": 8488,
      "onomy": 8489,
      "Ġheroes": 8490,
      "vereign": 8491,
      "ĠAntarctic": 8492,
      "ĠSaturday": 8493,
      "Ġsociety": 8494,
      "Ġstrictly": 8495,
      "Ġqueens": 8496,
      "Ġcomprehend": 8497,
      "Ġapprehension": 8498,
      "Ġsnuffed": 8499,
      "Ġpriests": 8500,
      "Ġvalleys": 8501,
      "Ġinnocent": 8502,
      "Ġadmirable": 8503,
      "Ġsafely": 8504,
      "Ġfamiliarly": 8505,
      "Ġaugment": 8506,
      "steak": 8507,
      "Ġascribed": 8508,
      "ĠSpecks": 8509,
      "Ġleathern": 8510,
      "Ġflourish": 8511,
      "Ġenlar": 8512,
      "Ġprofessional": 8513,
      "Ġdiscernible": 8514,
      "Ġvertical": 8515,
      "Ġequatorial": 8516,
      "Ġsuspicions": 8517,
      "ggling": 8518,
      "Ġoakum": 8519,
      "Ġbasket": 8520,
      "Ġmarshal": 8521,
      "Ġcreamy": 8522,
      "Ġitems": 8523,
      "Ġyarns": 8524,
      "Ġanatomical": 8525,
      "Ġstruggling": 8526,
      "Ġdisordered": 8527,
      "Ġincessant": 8528,
      "Ġaffrighted": 8529,
      "Ġproportion": 8530,
      "ĠArchy": 8531,
      "Ġreverend": 8532,
      "Ġexclamation": 8533,
      "ĠPlaton": 8534,
      "Ġphilosophers": 8535,
      "Ġobliged": 8536,
      "CKET": 8537,
      "Ġcavity": 8538,
      "Ġlazily": 8539,
      "Ġreliable": 8540,
      "ĠSometimes": 8541,
      "cepting": 8542,
      "Ġmeadow": 8543,
      "ĠStraits": 8544,
      "Ġqualities": 8545,
      "Ġpronounced": 8546,
      "Ġrescue": 8547,
      "Ġspecimen": 8548,
      "Ġdeliverance": 8549,
      "Ġestablish": 8550,
      "Ġsatisfied": 8551,
      "Ġhieroglyphics": 8552,
      "eastward": 8553,
      "ufactured": 8554,
      "Ġavail": 8555,
      "Ġmaketh": 8556,
      "Ġdyspeps": 8557,
      "Ġgamesome": 8558,
      "ĠIceland": 8559,
      "Ġstyle": 8560,
      "Ġassociations": 8561,
      "ĠBoat": 8562,
      "Ġlegend": 8563,
      "Ġunharmed": 8564,
      "Ġkneeling": 8565,
      "Ġenemy": 8566,
      "Ġchronic": 8567,
      "Ġreplenished": 8568,
      "Ġbedfellow": 8569,
      "Ġattentively": 8570,
      "Ġundeviating": 8571,
      "Ġpropriet": 8572,
      "Ġinquiry": 8573,
      "TUCKET": 8574,
      "Ġhaughty": 8575,
      "Ġghastly": 8576,
      "Ġriveted": 8577,
      "Ġforbade": 8578,
      "ĠSchool": 8579,
      "Ġorphans": 8580,
      "Ġoutrage": 8581,
      "Ġaboriginal": 8582,
      "pooneer": 8583,
      "Ġprocedure": 8584,
      "Ġtwilight": 8585,
      "uddenly": 8586,
      "Ġdismasted": 8587,
      "Ġsurrender": 8588,
      "Ġinsufferable": 8589,
      "Ġsleeves": 8590,
      "Ġclenched": 8591,
      "Ġunconqu": 8592,
      "Ġunconditional": 8593,
      "Ġsymmetr": 8594,
      "ĠTranquo": 8595,
      "Ġparallel": 8596,
      "ĠManilla": 8597,
      "Ġschooner": 8598,
      "Ġpromontory": 8599,
      "Ġomnipotent": 8600,
      "Ġopportunity": 8601,
      "Ġunimaginable": 8602,
      "Ġgovernor": 8603,
      "Ġphenomenon": 8604,
      "odecimo": 8605,
      "dorff": 8606,
      "freighted": 8607,
      "frau": 8608,
      "hazzar": 8609,
      "Ġcedar": 8610,
      "Ġcensus": 8611,
      "Ġhypot": 8612,
      "Ġpewter": 8613,
      "Ġpencil": 8614,
      "Ġdusky": 8615,
      "Ġrandom": 8616,
      "ĠAugust": 8617,
      "ĠBelshazzar": 8618,
      "ĠWashington": 8619,
      "ĠCologne": 8620,
      "ĠHosea": 8621,
      "ĠHarris": 8622,
      "ĠNANTUCKET": 8623,
      "ĠFourth": 8624,
      "Ġjourney": 8625,
      "Ġblasphe": 8626,
      "ĠLazarus": 8627,
      "ĠLinnÃ¦us": 8628,
      "ĠLangsdorff": 8629,
      "Ġhandkerchief": 8630,
      "Ġbranches": 8631,
      "ĠJungfrau": 8632,
      "Ġpassengers": 8633,
      "ĠVenetian": 8634,
      "ĠSpitzbergen": 8635,
      "Ġdefendants": 8636,
      "!)": 8637,
      ")âĢĶ": 8638,
      "**": 8639,
      ";âĢĻ": 8640,
      "Ad": 8641,
      "Are": 8642,
      "By": 8643,
      "CH": 8644,
      "Contr": 8645,
      "Du": 8646,
      "First": 8647,
      "Gold": 8648,
      "Harbor": 8649,
      "Let": 8650,
      "Me": 8651,
      "Mast": 8652,
      "Morning": 8653,
      "ND": 8654,
      "NE": 8655,
      "NU": 8656,
      "Never": 8657,
      "ODE": 8658,
      "RO": 8659,
      "Rose": 8660,
      "Sing": 8661,
      "Some": 8662,
      "Sub": 8663,
      "Sperm": 8664,
      "Supp": 8665,
      "Turn": 8666,
      "Wh": 8667,
      "aith": 8668,
      "aud": 8669,
      "aways": 8670,
      "bel": 8671,
      "bud": 8672,
      "bull": 8673,
      "bows": 8674,
      "bec": 8675,
      "bering": 8676,
      "bster": 8677,
      "barr": 8678,
      "bench": 8679,
      "che": 8680,
      "cest": 8681,
      "cord": 8682,
      "crew": 8683,
      "chen": 8684,
      "called": 8685,
      "conom": 8686,
      "dig": 8687,
      "eck": 8688,
      "every": 8689,
      "eep": 8690,
      "even": 8691,
      "found": 8692,
      "field": 8693,
      "fleet": 8694,
      "giv": 8695,
      "give": 8696,
      "him": 8697,
      "iary": 8698,
      "iating": 8699,
      "jack": 8700,
      "kine": 8701,
      "low": 8702,
      "lay": 8703,
      "laz": 8704,
      "lins": 8705,
      "laid": 8706,
      "might": 8707,
      "mod": 8708,
      "maker": 8709,
      "nat": 8710,
      "nings": 8711,
      "never": 8712,
      "ois": 8713,
      "ole": 8714,
      "oar": 8715,
      "pul": 8716,
      "pans": 8717,
      "pents": 8718,
      "run": 8719,
      "rust": 8720,
      "running": 8721,
      "sse": 8722,
      "such": 8723,
      "six": 8724,
      "shar": 8725,
      "test": 8726,
      "tide": 8727,
      "tub": 8728,
      "tell": 8729,
      "tured": 8730,
      "tubs": 8731,
      "ups": 8732,
      "uits": 8733,
      "voc": 8734,
      "vangel": 8735,
      "wr": 8736,
      "yellow": 8737,
      "Â£": 8738,
      "Åĵ": 8739,
      "Ġicy": 8740,
      "ĠÂ£": 8741,
      "Ġton": 8742,
      "Ġtur": 8743,
      "Ġtales": 8744,
      "Ġtasted": 8745,
      "Ġtrod": 8746,
      "Ġtumbling": 8747,
      "Ġtenth": 8748,
      "Ġtierce": 8749,
      "heus": 8750,
      "hement": 8751,
      "Ġape": 8752,
      "Ġaven": 8753,
      "inen": 8754,
      "inth": 8755,
      "inations": 8756,
      "inisc": 8757,
      "Ġsen": 8758,
      "Ġsire": 8759,
      "Ġsons": 8760,
      "Ġsne": 8761,
      "Ġsane": 8762,
      "Ġsilly": 8763,
      "Ġsermon": 8764,
      "Ġoun": 8765,
      "Ġoily": 8766,
      "Ġwad": 8767,
      "Ġware": 8768,
      "Ġwert": 8769,
      "Ġwaning": 8770,
      "rer": 8771,
      "hall": 8772,
      "haired": 8773,
      "erness": 8774,
      "erry": 8775,
      "ervo": 8776,
      "eronomy": 8777,
      "Ġbor": 8778,
      "Ġbough": 8779,
      "Ġbite": 8780,
      "Ġbount": 8781,
      "Ġbaw": 8782,
      "Ġbann": 8783,
      "Ġbudge": 8784,
      "iscr": 8785,
      "isco": 8786,
      "inged": 8787,
      "ingling": 8788,
      "leged": 8789,
      "Ġmol": 8790,
      "Ġmaid": 8791,
      "Ġmowers": 8792,
      "itched": 8793,
      "itching": 8794,
      "iteness": 8795,
      "itime": 8796,
      "itchen": 8797,
      "ouder": 8798,
      "Ġfix": 8799,
      "Ġfought": 8800,
      "Ġfaster": 8801,
      "Ġfacet": 8802,
      "Ġfuel": 8803,
      "Ġfullest": 8804,
      "Ġcy": 8805,
      "Ġcard": 8806,
      "Ġcart": 8807,
      "Ġcab": 8808,
      "Ġcistern": 8809,
      "Ġcrescent": 8810,
      "Ġcups": 8811,
      "eda": 8812,
      "edy": 8813,
      "edary": 8814,
      "ena": 8815,
      "eny": 8816,
      "Ġinward": 8817,
      "Ġhing": 8818,
      "Ġhip": 8819,
      "Ġhus": 8820,
      "orable": 8821,
      "oried": 8822,
      "arches": 8823,
      "lloa": 8824,
      "Ġtoiling": 8825,
      "esy": 8826,
      "Ġpon": 8827,
      "Ġpest": 8828,
      "Ġpod": 8829,
      "Ġpars": 8830,
      "Ġpals": 8831,
      "Ġpelt": 8832,
      "Ġpods": 8833,
      "Ġpicking": 8834,
      "Ġpounds": 8835,
      "Ġdin": 8836,
      "Ġding": 8837,
      "Ġdur": 8838,
      "Ġdub": 8839,
      "Ġdared": 8840,
      "Ġdined": 8841,
      "Ġdiet": 8842,
      "Ġdented": 8843,
      "any": 8844,
      "anke": 8845,
      "anter": 8846,
      "athet": 8847,
      "Ġlac": 8848,
      "Ġloo": 8849,
      "Ġlam": 8850,
      "Ġlard": 8851,
      "Ġlubber": 8852,
      "Ġlucif": 8853,
      "Ġlinen": 8854,
      "Ġnons": 8855,
      "Ġnarwhale": 8856,
      "omedary": 8857,
      "Ġthund": 8858,
      "Ġthresh": 8859,
      "Ġheap": 8860,
      "uten": 8861,
      "utting": 8862,
      "uttering": 8863,
      "uteronomy": 8864,
      "Ġhay": 8865,
      "Ġhabits": 8866,
      "lynes": 8867,
      "still": 8868,
      "sters": 8869,
      "stern": 8870,
      "stock": 8871,
      "stition": 8872,
      "structed": 8873,
      "Ġbeast": 8874,
      "Ġbeams": 8875,
      "Ġbeaver": 8876,
      "Ġgin": 8877,
      "Ġgul": 8878,
      "Ġgable": 8879,
      "Ġgull": 8880,
      "Ġglen": 8881,
      "Ġgaff": 8882,
      "Ġgills": 8883,
      "Ġgasp": 8884,
      "Ġgangway": 8885,
      "Ġep": 8886,
      "Ġet": 8887,
      "Ġeve": 8888,
      "Ġeagle": 8889,
      "Ġeconom": 8890,
      "imble": 8891,
      "imming": 8892,
      "ĠIV": 8893,
      "icing": 8894,
      "icade": 8895,
      "iciency": 8896,
      "Ġhissed": 8897,
      "Ġhissing": 8898,
      "othe": 8899,
      "oting": 8900,
      "otes": 8901,
      "Ġstal": 8902,
      "Ġstore": 8903,
      "Ġstem": 8904,
      "Ġstol": 8905,
      "Ġstated": 8906,
      "Ġstamp": 8907,
      "Ġstages": 8908,
      "Ġstays": 8909,
      "Ġstaff": 8910,
      "Ġstagger": 8911,
      "alter": 8912,
      "alian": 8913,
      "idable": 8914,
      "idious": 8915,
      "Ġsees": 8916,
      "Ġseve": 8917,
      "Ġsequ": 8918,
      "Ġsets": 8919,
      "Ġsepul": 8920,
      "irr": 8921,
      "irs": 8922,
      "irit": 8923,
      "irra": 8924,
      "irted": 8925,
      "acies": 8926,
      "aculous": 8927,
      "achal": 8928,
      "ada": 8929,
      "ady": 8930,
      "adiz": 8931,
      "Ġasse": 8932,
      "Ġramp": 8933,
      "Ġringing": 8934,
      "Ġroof": 8935,
      "Ġrattling": 8936,
      "Ġfors": 8937,
      "Ġforbid": 8938,
      "urd": 8939,
      "ury": 8940,
      "urry": 8941,
      "Ġissue": 8942,
      "Ġreward": 8943,
      "Ġrender": 8944,
      "Ġrept": 8945,
      "Ġredden": 8946,
      "Ġrelish": 8947,
      "Ġreappe": 8948,
      "Ġrebell": 8949,
      "âĢĶ(": 8950,
      "âĢĶâĢĶâĢĿ": 8951,
      "ĠAust": 8952,
      "ĠAff": 8953,
      "ĠAlex": 8954,
      "ĠTO": 8955,
      "ĠTe": 8956,
      "ĠTit": 8957,
      "ĠTower": 8958,
      "ĠTert": 8959,
      "ĠTex": 8960,
      "ĠTham": 8961,
      "Ġwashed": 8962,
      "ĠSi": 8963,
      "ĠSet": 8964,
      "ĠSus": 8965,
      "ĠScript": 8966,
      "ĠSabb": 8967,
      "ĠSuddenly": 8968,
      "cember": 8969,
      "Ġallies": 8970,
      "Ġweep": 8971,
      "Ġwearing": 8972,
      "illes": 8973,
      "iluvian": 8974,
      "hering": 8975,
      "heric": 8976,
      "Ġanaly": 8977,
      "Ġancest": 8978,
      "Ġattaining": 8979,
      "tery": 8980,
      "teran": 8981,
      "chment": 8982,
      "orean": 8983,
      "Ġshin": 8984,
      "Ġshop": 8985,
      "Ġshove": 8986,
      "amount": 8987,
      "aments": 8988,
      "Ġsob": 8989,
      "Ġsocks": 8990,
      "Ġfron": 8991,
      "Ġfrock": 8992,
      "Ġwhaleboats": 8993,
      "quis": 8994,
      "quest": 8995,
      "quick": 8996,
      "queness": 8997,
      "ifies": 8998,
      "ifully": 8999,
      "iferous": 9000,
      "Ġnotion": 9001,
      "ĠBet": 9002,
      "ĠBay": 9003,
      "ĠBook": 9004,
      "ĠBab": 9005,
      "ĠBoth": 9006,
      "ĠBroad": 9007,
      "ĠBouton": 9008,
      "astrop": 9009,
      "rose": 9010,
      "roke": 9011,
      "ropp": 9012,
      "roken": 9013,
      "rooms": 9014,
      "iproc": 9015,
      "Ġbye": 9016,
      "Ġdepl": 9017,
      "Ġdevelop": 9018,
      "Ġlexic": 9019,
      "Ġlearning": 9020,
      "aper": 9021,
      "apse": 9022,
      "apted": 9023,
      "apting": 9024,
      "ĠWal": 9025,
      "ĠWard": 9026,
      "ĠWere": 9027,
      "ĠWinds": 9028,
      "ulted": 9029,
      "ulates": 9030,
      "Ġvow": 9031,
      "Ġvag": 9032,
      "Ġvarying": 9033,
      "ĠCur": 9034,
      "ĠCast": 9035,
      "ĠCro": 9036,
      "ĠCall": 9037,
      "ĠCod": 9038,
      "ĠCare": 9039,
      "ĠCru": 9040,
      "ĠComm": 9041,
      "ĠCadiz": 9042,
      "Ġmeal": 9043,
      "Ġmemb": 9044,
      "Ġspinning": 9045,
      "ags": 9046,
      "Ġwheels": 9047,
      "Ġwheeled": 9048,
      "Ġboister": 9049,
      "Ġsable": 9050,
      "Ġsaun": 9051,
      "Ġsabb": 9052,
      "Ġliv": 9053,
      "Ġlivel": 9054,
      "anth": 9055,
      "anthe": 9056,
      "Ġconting": 9057,
      "Ġconverted": 9058,
      "cts": 9059,
      "rig": 9060,
      "rike": 9061,
      "riest": 9062,
      "ribly": 9063,
      "ests": 9064,
      "estation": 9065,
      "ersed": 9066,
      "ĠPort": 9067,
      "ĠPaul": 9068,
      "ĠPrair": 9069,
      "ĠPanthe": 9070,
      "ĠPriest": 9071,
      "ĠHard": 9072,
      "ĠHum": 9073,
      "ĠHun": 9074,
      "ĠHump": 9075,
      "ĠHarbor": 9076,
      "ĠHuzza": 9077,
      "Ġaltering": 9078,
      "Ġalleged": 9079,
      "osted": 9080,
      "ums": 9081,
      "umes": 9082,
      "umbled": 9083,
      "umption": 9084,
      "Ġunv": 9085,
      "Ġunhe": 9086,
      "Ġunse": 9087,
      "Ġunint": 9088,
      "Ġunple": 9089,
      "Ġunfort": 9090,
      "Ġunapp": 9091,
      "Ġunalter": 9092,
      "Ġinteg": 9093,
      "Ġintuit": 9094,
      "elstr": 9095,
      "Ġcomposing": 9096,
      "Ġkidn": 9097,
      "Ġkitchen": 9098,
      "Ġneat": 9099,
      "Ġnecks": 9100,
      "oda": 9101,
      "ortions": 9102,
      "ĠFar": 9103,
      "ĠFoss": 9104,
      "ĠFrederick": 9105,
      "ĠStory": 9106,
      "ĠStreet": 9107,
      "Ġoutl": 9108,
      "Ġoutline": 9109,
      "hanging": 9110,
      "unes": 9111,
      "unken": 9112,
      "Ġshipwreck": 9113,
      "Ġarea": 9114,
      "isture": 9115,
      "istered": 9116,
      "istically": 9117,
      "Ġju": 9118,
      "Ġjave": 9119,
      "Ġexists": 9120,
      "Ġexerc": 9121,
      "Ġnoses": 9122,
      "Ġnobler": 9123,
      "ĠMen": 9124,
      "ĠMor": 9125,
      "ĠMat": 9126,
      "ĠMir": 9127,
      "ĠMost": 9128,
      "ĠMuch": 9129,
      "ĠMos": 9130,
      "ĠMoss": 9131,
      "Ġagitated": 9132,
      "Ġaghast": 9133,
      "Ġagencies": 9134,
      "Ġplug": 9135,
      "Ġplump": 9136,
      "Ġplanting": 9137,
      "Ġabound": 9138,
      "ishly": 9139,
      "Ġbluff": 9140,
      "Ġblunder": 9141,
      "Ġbloom": 9142,
      "Ġoverl": 9143,
      "Ġoverbe": 9144,
      "Ġoverlook": 9145,
      "Ġoverheard": 9146,
      "Ġprel": 9147,
      "Ġprest": 9148,
      "Ġpreach": 9149,
      "Ġpreacher": 9150,
      "poll": 9151,
      "poons": 9152,
      "ĠDan": 9153,
      "ĠDamn": 9154,
      "gee": 9155,
      "ilet": 9156,
      "ilent": 9157,
      "ĠLo": 9158,
      "ĠLay": 9159,
      "ĠLion": 9160,
      "ĠLight": 9161,
      "ĠLess": 9162,
      "ĠLatin": 9163,
      "ivable": 9164,
[...]
